node {
  name: "Train/TrainInput/raw_data"
  op: "Const"
  attr {
    key: "_output_shapes"
    value {
      list {
        shape {
          dim {
            size: 30999
          }
        }
      }
    }
  }
  attr {
    key: "dtype"
    value {
      type: DT_INT32
    }
  }
  attr {
    key: "value"
    value {
      tensor {
        dtype: DT_INT32
        tensor_shape {
          dim {
            size: 30999
          }
        }
        tensor_content: "\000\000\000\000\004\000\000\000\001\000\000\000\000\000\000\000\001\000\000\000\000\000\000\000\005\000\000\000\001\000\000\000\000\000\000\000\001\000\000\000:\000\000\000Z\000\000\000.\000\000\000\032\000\000\000Z\000\000\000\032\000\000\000\032\000\000\000.\000\000\000\000\000\000\000\001\000\000\000\000\000\000\000,\000\000\000\001\000\000\000+\000\000\000\000\000\000\000\001\000\000\000\000\000\000\000<\000\000\000\001\000\000\000;\000\000\000\000\000\000\000\000\000\000\000\001\000\000\000\000\000\000\000\001\000\000\000\000\000\000\000\001\000\000\000\000\000\000\000\001\000\000\000\000\000\000\000\001\000\000\000\000\000\000\000,\000\000\000\001\000\000\000R\000\000\000S\000\000\000\000\000\000\000+\000\000\000\001\000\000\000\000\000\000\000\013\000\000\000\016\000\000\000\001\000\000\000\014\000\000\000\r\000\000\000\024\000\000\000\017\000\000\000\007\000\000\000\024\000\000\000\023\000\000\000\r\000\000\000\007\000\000\000\016\000\000\000\t\000\000\000\013\000\000\000\n\000\000\000\006\000\000\000\000\000\000\000\014\000\000\000\017\000\000\000\013\000\000\000\016\000\000\000\020\000\000\000\001\000\000\000\014\000\000\000\002\000\000\000\017\000\000\000\021\000\000\000\013\000\000\000\016\000\000\000\r\000\000\000\007\000\000\000\010\000\000\000\017\000\000\000\001\000\000\000\014\000\000\000\n\000\000\000\006\000\000\000\010\000\000\0001\000\000\000\t\000\000\000\010\000\000\000\t\000\000\000U\000\000\000\010\000\000\000\t\000\000\000\010\000\000\000\010\000\000\000\t\000\000\000\010\000\000\000\t\000\000\000\010\000\000\000\t\000\000\000\010\000\000\000\007\000\000\000\010\000\000\000\027\000\000\000\t\000\000\000\006\000\000\000$\000\000\000)\000\000\000\025\000\000\000R\000\000\000K\000\000\000$\000\000\000&\000\000\000\027\000\000\000*\000\000\000)\000\000\000\007\000\000\000\010\000\000\000\025\000\000\000\006\000\000\000\t\000\000\000\010\000\000\000\t\000\000\000\010\000\000\000\007\000\000\000\r\000\000\000S\000\000\000R\000\000\000\002\000\000\000\n\000\000\000\006\000\000\000\t\000\000\000\020\000\000\000\021\000\000\0009\000\000\0007\000\000\0009\000\000\0007\000\000\0009\000\000\0007\000\000\000\003\000\000\000\002\000\000\000\003\000\000\000\002\000\000\000/\000\000\000\003\000\000\000\002\000\000\000-\000\000\000\003\000\000\000\002\000\000\000\003\000\000\000\002\000\000\000\003\000\000\000\002\000\000\000\003\000\000\000\002\000\000\000\003\000\000\000\002\000\000\000\003\000\000\000\002\000\000\000\003\000\000\000\002\000\000\000/\000\000\000-\000\000\000\003\000\000\000\002\000\000\000\020\000\000\000\016\000\000\000\n\000\000\000\031\000\000\000 \000\000\000\036\000\000\000\030\000\000\000\r\000\000\000\024\000\000\000\016\000\000\000\031\000\000\000\013\000\000\000\023\000\000\000\000\000\000\000 \000\000\000\n\000\000\000\004\000\000\000\022\000\000\000\017\000\000\000\014\000\000\000\034\000\000\000\001\000\000\000\005\000\000\000\022\000\000\000\033\000\000\000\004\000\000\000\026\000\000\000%\000\000\000\005\000\000\000!\000\000\000\004\000\000\000\000\000\000\000\001\000\000\000\005\000\000\000\004\000\000\000\005\000\000\000\000\000\000\000\001\000\000\000\000\000\000\000\001\000\000\000\013\000\000\000\016\000\000\000\017\000\000\000\014\000\000\000\000\000\000\000\004\000\000\000\022\000\000\000\034\000\000\000\001\000\000\000\005\000\000\000\004\000\000\000\000\000\000\000\026\000\000\000\022\000\000\000\005\000\000\000\001\000\000\000\000\000\000\000\026\000\000\000\004\000\000\000\001\000\000\000\005\000\000\000\004\000\000\000\022\000\000\000\005\000\000\000\026\000\000\000\022\000\000\000\033\000\000\000\004\000\000\000\000\000\000\000\005\000\000\000\016\000\000\000\013\000\000\000\020\000\000\000\026\000\000\000\014\000\000\000\001\000\000\000\017\000\000\000\021\000\000\000\002\000\000\000\002\000\000\000\003\000\000\000\003\000\000\000\002\000\000\000\020\000\000\000\003\000\000\000\002\000\000\000\021\000\000\000\003\000\000\000\002\000\000\000R\000\000\000S\000\000\000&\000\000\000\003\000\000\000#\000\000\000\002\000\000\000&\000\000\000\020\000\000\000*\000\000\000\003\000\000\000\"\000\000\000\r\000\000\000\007\000\000\000\021\000\000\000\027\000\000\000\n\000\000\000\006\000\000\0002\000\000\0000\000\000\000\007\000\000\000\r\000\000\000\025\000\000\000\016\000\000\000\013\000\000\000\006\000\000\000\n\000\000\000\017\000\000\000\014\000\000\000\000\000\000\000\004\000\000\000\001\000\000\000\022\000\000\000\005\000\000\000\034\000\000\000\033\000\000\000\004\000\000\000\000\000\000\000\013\000\000\000\005\000\000\000\026\000\000\000\013\000\000\000\000\000\000\000\004\000\000\000\014\000\000\000\022\000\000\000\034\000\000\000\017\000\000\000\001\000\000\000\005\000\000\000\033\000\000\000\004\000\000\000\000\000\000\000\001\000\000\000\026\000\000\000T\000\000\000\005\000\000\000=\000\000\000:\000\000\000\032\000\000\000\004\000\000\000\022\000\000\000\005\000\000\000\026\000\000\000\022\000\000\000\004\000\000\000%\000\000\000\000\000\000\000\037\000\000\000W\000\000\000\001\000\000\000\005\000\000\000\036\000\000\000\026\000\000\000!\000\000\000\030\000\000\000\035\000\000\000V\000\000\000\010\000\000\0002\000\000\000 \000\000\000\031\000\000\000\t\000\000\0000\000\000\0002\000\000\000\010\000\000\000\027\000\000\000\007\000\000\000\r\000\000\0000\000\000\000\t\000\000\000\024\000\000\000\025\000\000\000\016\000\000\000\013\000\000\000\006\000\000\000\023\000\000\000\000\000\000\000\n\000\000\000\014\000\000\000\017\000\000\000\004\000\000\000\022\000\000\000\034\000\000\000\005\000\000\000\001\000\000\000\033\000\000\000\004\000\000\000\000\000\000\000\010\000\000\000\006\000\000\000U\000\000\000\t\000\000\000\010\000\000\000\t\000\000\000\010\000\000\000\t\000\000\000\010\000\000\000\t\000\000\000\010\000\000\000\t\000\000\000\010\000\000\000\t\000\000\000\010\000\000\000\t\000\000\000\010\000\000\000\007\000\000\000\r\000\000\000\027\000\000\000\n\000\000\000\t\000\000\000\024\000\000\000\006\000\000\000\023\000\000\000\024\000\000\000\025\000\000\000\023\000\000\000\027\000\000\000\025\000\000\000\\\000\000\000K\000\000\000\027\000\000\000\025\000\000\000\024\000\000\000\023\000\000\000\024\000\000\000\023\000\000\000\027\000\000\000\025\000\000\000\024\000\000\000\023\000\000\000\024\000\000\000\023\000\000\000\024\000\000\000\027\000\000\000\007\000\000\000\023\000\000\000\010\000\000\000\006\000\000\000\025\000\000\000\t\000\000\000\010\000\000\000\t\000\000\000\010\000\000\000\\\000\000\000K\000\000\000\010\000\000\0001\000\000\000\t\000\000\0001\000\000\000\010\000\000\000\007\000\000\000\027\000\000\000\r\000\000\000\024\000\000\000\031\000\000\000\020\000\000\000\n\000\000\000\002\000\000\000\023\000\000\000\006\000\000\000\021\000\000\0009\000\000\0007\000\000\000\003\000\000\000\002\000\000\0009\000\000\000-\000\000\000/\000\000\000\003\000\000\000-\000\000\000\002\000\000\000/\000\000\000-\000\000\000/\000\000\000-\000\000\0007\000\000\000\003\000\000\000\002\000\000\000\003\000\000\000\002\000\000\000\003\000\000\000\002\000\000\000\003\000\000\000\002\000\000\000\003\000\000\000\002\000\000\000\003\000\000\000\002\000\000\000\003\000\000\000\002\000\000\000\003\000\000\000\002\000\000\000\003\000\000\000\002\000\000\000\003\000\000\000\002\000\000\000\003\000\000\000\002\000\000\000\003\000\000\000\002\000\000\0009\000\000\000\003\000\000\0009\000\000\0007\000\000\0009\000\000\000\002\000\000\0007\000\000\000/\000\000\000-\000\000\000/\000\000\000-\000\000\000/\000\000\000-\000\000\000\003\000\000\000\002\000\000\000\003\000\000\000\002\000\000\000\003\000\000\000\002\000\000\000\003\000\000\000\002\000\000\000\003\000\000\000\002\000\000\000\003\000\000\000\002\000\000\000\006\000\000\000$\000\000\000&\000\000\000)\000\000\000$\000\000\000*\000\000\000\025\000\000\000$\000\000\000)\000\000\000$\000\000\000&\000\000\000*\000\000\000&\000\000\000)\000\000\000$\000\000\000N\000\000\000*\000\000\000)\000\000\000$\000\000\000)\000\000\000$\000\000\000)\000\000\000$\000\000\000)\000\000\000$\000\000\000P\000\000\000\027\000\000\000&\000\000\000\025\000\000\000*\000\000\000&\000\000\000*\000\000\000\027\000\000\000\007\000\000\000\r\000\000\000\024\000\000\000\025\000\000\000\016\000\000\000\023\000\000\000\013\000\000\000\n\000\000\000\006\000\000\000\000\000\000\000\014\000\000\000\017\000\000\000\004\000\000\000\022\000\000\000\034\000\000\000\001\000\000\000\005\000\000\000\033\000\000\000\004\000\000\000\000\000\000\000\026\000\000\000\005\000\000\000\013\000\000\000\016\000\000\000\001\000\000\000\r\000\000\000\024\000\000\000\014\000\000\000\007\000\000\000\027\000\000\000\017\000\000\000\023\000\000\000\006\000\000\000\n\000\000\000\007\000\000\000\025\000\000\000\027\000\000\000\010\000\000\0002\000\000\000\006\000\000\000\t\000\000\000B\000\000\000\025\000\000\0000\000\000\000B\000\000\000I\000\000\0004\000\000\0006\000\000\0004\000\000\0002\000\000\000\010\000\000\0006\000\000\000\007\000\000\0000\000\000\000\r\000\000\000\024\000\000\000\t\000\000\000\020\000\000\000\006\000\000\000\n\000\000\000\002\000\000\000\023\000\000\000\003\000\000\000\002\000\000\000\002\000\000\000\021\000\000\000#\000\000\000\003\000\000\000&\000\000\000*\000\000\000&\000\000\000\"\000\000\000*\000\000\000&\000\000\000#\000\000\000*\000\000\000\"\000\000\000#\000\000\000&\000\000\000\"\000\000\000#\000\000\000\002\000\000\000*\000\000\000\020\000\000\000\"\000\000\000\016\000\000\000\013\000\000\000\003\000\000\000\021\000\000\000\017\000\000\000\000\000\000\000\014\000\000\000\004\000\000\000\022\000\000\000\034\000\000\000\001\000\000\000\005\000\000\000\026\000\000\000\022\000\000\000\022\000\000\000\033\000\000\000\004\000\000\000\000\000\000\000\013\000\000\000\016\000\000\000\026\000\000\000\001\000\000\000\030\000\000\000\036\000\000\000?\000\000\000\031\000\000\000 \000\000\000\006\000\000\000?\000\000\000H\000\000\000\030\000\000\000\007\000\000\000\r\000\000\000\036\000\000\000 \000\000\000\027\000\000\000\031\000\000\000\006\000\000\000\n\000\000\0004\000\000\000\025\000\000\000\027\000\000\0006\000\000\000\016\000\000\000\013\000\000\000(\000\000\000\000\000\000\000\014\000\000\000\017\000\000\000L\000\000\000\001\000\000\000\000\000\000\000A\000\000\000\001\000\000\000K\000\000\000\\\000\000\000\000\000\000\000\001\000\000\000\000\000\000\000\001\000\000\000\000\000\000\000\001\000\000\000\000\000\000\000\001\000\000\000\000\000\000\000\001\000\000\000\000\000\000\000\001\000\000\000\000\000\000\000\001\000\000\000\000\000\000\000\001\000\000\000\000\000\000\000M\000\000\000E\000\000\000\001\000\000\000\000\000\000\000\001\000\000\000\000\000\000\000\'\000\000\000\001\000\000\000\036\000\000\000W\000\000\000\037\000\000\000\031\000\000\000%\000\000\000 \000\000\000V\000\000\000\004\000\000\000\000\000\000\000\035\000\000\000\\\000\000\000K\000\000\000!\000\000\000\005\000\000\000b\000\000\000\001\000\000\000a\000\000\000\000\000\000\000(\000\000\000\000\000\000\000D\000\000\000\001\000\000\000F\000\000\000\000\000\000\000b\000\000\000\001\000\000\000\000\000\000\000\001\000\000\000\000\000\000\000a\000\000\000=\000\000\000\001\000\000\000]\000\000\000=\000\000\000\000\000\000\000\032\000\000\000\032\000\000\000\013\000\000\000\016\000\000\000\001\000\000\000\014\000\000\000\017\000\000\000\013\000\000\000\016\000\000\000\020\000\000\000\014\000\000\000\017\000\000\000\016\000\000\000\013\000\000\000\000\000\000\000\017\000\000\000\014\000\000\000\021\000\000\000\001\000\000\000\000\000\000\000@\000\000\000:\000\000\000\001\000\000\000=\000\000\000\000\000\000\000\032\000\000\000\'\000\000\000(\000\000\000\'\000\000\000\032\000\000\000,\000\000\000\001\000\000\000+\000\000\000\000\000\000\000\001\000\000\000\000\000\000\000\013\000\000\000\001\000\000\000\000\000\000\000\014\000\000\000\001\000\000\000\000\000\000\000\001\000\000\000\000\000\000\000\000\000\000\000\001\000\000\000\000\000\000\000\001\000\000\000\000\000\000\000\001\000\000\000\000\000\000\000,\000\000\000\001\000\000\000\000\000\000\000\001\000\000\000\000\000\000\000\001\000\000\000+\000\000\000\000\000\000\000\001\000\000\000\000\000\000\000(\000\000\000_\000\000\000\001\000\000\000\'\000\000\000\000\000\000\000\016\000\000\000\013\000\000\000\020\000\000\000\001\000\000\000\014\000\000\000\017\000\000\000\021\000\000\000\020\000\000\000\000\000\000\000\017\000\000\000\013\000\000\000\003\000\000\000\004\000\000\000\021\000\000\000\014\000\000\000\005\000\000\000<\000\000\000;\000\000\000\001\000\000\000\000\000\000\000(\000\000\000F\000\000\000D\000\000\000\'\000\000\000\001\000\000\000\000\000\000\000\001\000\000\000@\000\000\000(\000\000\000\'\000\000\000\000\000\000\000\032\000\000\000\001\000\000\000\000\000\000\000=\000\000\000\001\000\000\000:\000\000\000\000\000\000\000:\000\000\000,\000\000\000+\000\000\000\001\000\000\000\000\000\000\000\001\000\000\000\000\000\000\000\001\000\000\000\000\000\000\000.\000\000\000\032\000\000\000\001\000\000\000:\000\000\000>\000\000\000=\000\000\000\000\000\000\000\001\000\000\000\032\000\000\000<\000\000\000\000\000\000\000\032\000\000\000;\000\000\000\032\000\000\000\001\000\000\000\004\000\000\000\000\000\000\000\001\000\000\000\000\000\000\000\005\000\000\000\001\000\000\000\000\000\000\000\001\000\000\000\000\000\000\000\001\000\000\000\000\000\000\000\004\000\000\000\005\000\000\000C\000\000\000J\000\000\000\001\000\000\000\000\000\000\000\001\000\000\000\000\000\000\000\001\000\000\000\000\000\000\000+\000\000\000,\000\000\000\001\000\000\000+\000\000\000\000\000\000\000\001\000\000\000\000\000\000\000\001\000\000\000\000\000\000\000\001\000\000\000\000\000\000\000\032\000\000\000\032\000\000\000\001\000\000\000\000\000\000\000\001\000\000\000\013\000\000\000\016\000\000\000\020\000\000\000\014\000\000\000\017\000\000\000\024\000\000\000\r\000\000\000\021\000\000\000\027\000\000\000\023\000\000\000\025\000\000\000\n\000\000\000\027\000\000\000\007\000\000\000\r\000\000\000`\000\000\000%\000\000\000\037\000\000\000(\000\000\000X\000\000\000!\000\000\000\000\000\000\000\035\000\000\000\001\000\000\000A\000\000\000\000\000\000\000L\000\000\000\001\000\000\000\000\000\000\000\001\000\000\000\000\000\000\000\001\000\000\000\000\000\000\000\001\000\000\000\000\000\000\000\001\000\000\000\000\000\000\000\001\000\000\000\000\000\000\000\001\000\000\000\000\000\000\000\001\000\000\000E\000\000\000M\000\000\000\'\000\000\000\000\000\000\000J\000\000\000C\000\000\000\001\000\000\000\000\000\000\000\016\000\000\000\013\000\000\000\001\000\000\000\014\000\000\000\013\000\000\000\014\000\000\000\013\000\000\000\017\000\000\000\014\000\000\000\016\000\000\000\013\000\000\000\024\000\000\000\r\000\000\000\007\000\000\000\017\000\000\0003\000\000\000\023\000\000\000\014\000\000\000\006\000\000\000\n\000\000\000\010\000\000\0001\000\000\000\t\000\000\000\007\000\000\000\027\000\000\000\030\000\000\000\031\000\000\000\025\000\000\000\006\000\000\000\007\000\000\000\010\000\000\000\006\000\000\000\t\000\000\000\010\000\000\000\t\000\000\000\007\000\000\000\010\000\000\000\027\000\000\000\025\000\000\000\t\000\000\000\006\000\000\000\007\000\000\000\027\000\000\000\025\000\000\000\006\000\000\000J\000\000\000C\000\000\000\027\000\000\000\007\000\000\000\006\000\000\000\010\000\000\000Y\000\000\000\025\000\000\000\t\000\000\000\010\000\000\000\t\000\000\0003\000\000\000\010\000\000\000\t\000\000\0001\000\000\000\010\000\000\000\007\000\000\000\027\000\000\000\025\000\000\000\t\000\000\000\006\000\000\000\007\000\000\000\000\000\000\000\004\000\000\000\013\000\000\000\001\000\000\000\005\000\000\000\016\000\000\000\026\000\000\000\014\000\000\000\017\000\000\000\020\000\000\000\002\000\000\000N\000\000\000\021\000\000\000C\000\000\000\024\000\000\000\016\000\000\000\023\000\000\000\013\000\000\000\000\000\000\000\n\000\000\000\014\000\000\000\004\000\000\000\017\000\000\000\022\000\000\000\034\000\000\000\005\000\000\000\001\000\000\000\033\000\000\000\004\000\000\000\026\000\000\000=\000\000\000[\000\000\000\005\000\000\000:\000\000\000Z\000\000\000.\000\000\000\032\000\000\000\000\000\000\000=\000\000\000[\000\000\000\001\000\000\000\000\000\000\000\004\000\000\000\032\000\000\000>\000\000\000\022\000\000\000.\000\000\000\001\000\000\000\005\000\000\000>\000\000\000\022\000\000\000.\000\000\000\026\000\000\000\022\000\000\000\026\000\000\000\022\000\000\000\004\000\000\000\000\000\000\000\026\000\000\000\013\000\000\000\016\000\000\000\005\000\000\000\001\000\000\000\r\000\000\000\014\000\000\000\007\000\000\000\027\000\000\000\017\000\000\000\n\000\000\0002\000\000\000\025\000\000\000\006\000\000\0000\000\000\0002\000\000\000\007\000\000\000\r\000\000\0000\000\000\000\016\000\000\000\013\000\000\000\n\000\000\000\006\000\000\000\000\000\000\000\014\000\000\000\017\000\000\000\001\000\000\000\000\000\000\000\001\000\000\000\000\000\000\000\004\000\000\000\022\000\000\000\034\000\000\000\001\000\000\000\005\000\000\000\033\000\000\000\004\000\000\000\024\000\000\000\r\000\000\000\007\000\000\000\030\000\000\000\036\000\000\000?\000\000\000\006\000\000\000\031\000\000\000\023\000\000\000\n\000\000\000 \000\000\000H\000\000\000\036\000\000\000\030\000\000\000\007\000\000\000\r\000\000\000 \000\000\000\n\000\000\000\031\000\000\000\006\000\000\000\r\000\000\000\007\000\000\000\006\000\000\000\007\000\000\000\006\000\000\000\020\000\000\000\023\000\000\000\n\000\000\000\t\000\000\000\002\000\000\0007\000\000\0009\000\000\000\021\000\000\000\003\000\000\000\002\000\000\000\003\000\000\000\002\000\000\000\003\000\000\000\\\000\000\000S\000\000\000\002\000\000\0009\000\000\0007\000\000\000\002\000\000\000/\000\000\000\003\000\000\000\002\000\000\000\003\000\000\000\002\000\000\000\002\000\000\000-\000\000\000/\000\000\000\003\000\000\000\002\000\000\000\003\000\000\000\002\000\000\000\003\000\000\000\002\000\000\000\003\000\000\000\002\000\000\000\003\000\000\000\002\000\000\000\003\000\000\000\002\000\000\000\003\000\000\000\002\000\000\000\003\000\000\000\002\000\000\000-\000\000\000/\000\000\000-\000\000\000\003\000\000\000\002\000\000\000\003\000\000\000\002\000\000\000\003\000\000\000\002\000\000\000\003\000\000\000\002\000\000\000\003\000\000\000\002\000\000\000\003\000\000\000\002\000\000\000\003\000\000\000\002\000\000\000\003\000\000\000\002\000\000\000\003\000\000\000\002\000\000\000\002\000\000\000\003\000\000\000\002\000\000\000\003\000\000\000\002\000\000\000\003\000\000\000\002\000\000\000\003\000\000\000\002\000\000\000\003\000\000\000\002\000\000\000\003\000\000\000\002\000\000\000\003\000\000\000\002\000\000\000\002\000\000\000\002\000\000\000\003\000\000\000\016\000\000\000\013\000\000\000\000\000\000\000\004\000\000\000\017\000\000\000\022\000\000\000\014\000\000\000\034\000\000\000\001\000\000\000\005\000\000\000\033\000\000\000\004\000\000\000\005\000\000\000\026\000\000\000\022\000\000\000\004\000\000\000\005\000\000\000\004\000\000\000\005\000\000\000\004\000\000\000\005\000\000\000\004\000\000\000\026\000\000\000\005\000\000\000%\000\000\000\004\000\000\000!\000\000\000\005\000\000\000%\000\000\000!\000\000\000%\000\000\000\000\000\000\000\004\000\000\000!\000\000\000\005\000\000\000\001\000\000\000\000\000\000\000\001\000\000\000\000\000\000\000\001\000\000\000\000\000\000\000\004\000\000\000\022\000\000\000\034\000\000\000\001\000\000\000\005\000\000\000\026\000\000\000\022\000\000\000\033\000\000\000\004\000\000\000\000\000\000\000\013\000\000\000\016\000\000\000\005\000\000\000\001\000\000\000\026\000\000\000\r\000\000\000\014\000\000\000\007\000\000\000\017\000\000\000\030\000\000\000\006\000\000\000\010\000\000\000\n\000\000\000\031\000\000\000\030\000\000\000\010\000\000\000\031\000\000\000\t\000\000\000\010\000\000\000\t\000\000\000\010\000\000\000\t\000\000\000\010\000\000\000\t\000\000\000\010\000\000\0002\000\000\000B\000\000\000\t\000\000\0000\000\000\000I\000\000\0004\000\000\000B\000\000\000I\000\000\000B\000\000\0006\000\000\000I\000\000\0004\000\000\0006\000\000\0004\000\000\0006\000\000\0004\000\000\0002\000\000\0006\000\000\000\007\000\000\000S\000\000\000\\\000\000\0000\000\000\000\024\000\000\000\r\000\000\000\006\000\000\000\n\000\000\000\020\000\000\000\023\000\000\000\002\000\000\000\021\000\000\000#\000\000\000\003\000\000\000&\000\000\000\"\000\000\000*\000\000\000&\000\000\000*\000\000\000&\000\000\000*\000\000\000&\000\000\000*\000\000\000&\000\000\000#\000\000\000\002\000\000\000\020\000\000\000*\000\000\000\003\000\000\000\"\000\000\000\024\000\000\000\r\000\000\000\007\000\000\000\027\000\000\000\021\000\000\000\n\000\000\0002\000\000\000\006\000\000\000\025\000\000\0000\000\000\000\023\000\000\0004\000\000\0006\000\000\0004\000\000\0006\000\000\0004\000\000\000B\000\000\0002\000\000\000\010\000\000\000I\000\000\000\007\000\000\000\t\000\000\000\r\000\000\0006\000\000\0000\000\000\000\016\000\000\000\013\000\000\000\006\000\000\000\n\000\000\000\000\000\000\000\014\000\000\000\004\000\000\000\017\000\000\000\022\000\000\000\034\000\000\000\005\000\000\000\001\000\000\000\033\000\000\000\004\000\000\000\000\000\000\000\013\000\000\000\005\000\000\000\026\000\000\000\020\000\000\000\002\000\000\000\003\000\000\000\016\000\000\000\013\000\000\000\000\000\000\000\017\000\000\000\021\000\000\000\014\000\000\000\001\000\000\000\000\000\000\000(\000\000\000@\000\000\000D\000\000\000\001\000\000\000F\000\000\000\000\000\000\000\001\000\000\000\000\000\000\000\'\000\000\000Z\000\000\000\001\000\000\000[\000\000\000>\000\000\000\000\000\000\000.\000\000\000,\000\000\000\001\000\000\000+\000\000\000<\000\000\000;\000\000\000\000\000\000\000\001\000\000\000\000\000\000\000<\000\000\000\001\000\000\000;\000\000\000\000\000\000\000\001\000\000\000\000\000\000\000\001\000\000\000\000\000\000\000\001\000\000\000\000\000\000\000\001\000\000\000\000\000\000\000\001\000\000\000\000\000\000\000\001\000\000\000\000\000\000\000\001\000\000\000\000\000\000\000\001\000\000\000\000\000\000\000\001\000\000\000\000\000\000\000\001\000\000\000\000\000\000\000,\000\000\000\001\000\000\000\000\000\000\000+\000\000\000K\000\000\000\\\000\000\000\001\000\000\000\000\000\000\000>\000\000\000\001\000\000\000.\000\000\000\000\000\000\000\001\000\000\000\000\000\000\000\001\000\000\000(\000\000\000\000\000\000\000d\000\000\000\001\000\000\000\000\000\000\000\'\000\000\000\001\000\000\000\000\000\000\000\013\000\000\000\016\000\000\000\001\000\000\000\020\000\000\000\014\000\000\000\017\000\000\000\021\000\000\000\r\000\000\000\007\000\000\000\014\000\000\000\017\000\000\000\010\000\000\0003\000\000\000\006\000\000\000\n\000\000\000\t\000\000\000\\\000\000\000K\000\000\000\010\000\000\000\t\000\000\000\010\000\000\000U\000\000\000\t\000\000\000\010\000\000\000\t\000\000\000\010\000\000\000\t\000\000\000\010\000\000\000\007\000\000\000\t\000\000\000\010\000\000\000\r\000\000\000\027\000\000\000\t\000\000\000\n\000\000\000\006\000\000\000\024\000\000\000\025\000\000\000\023\000\000\000\027\000\000\000\024\000\000\000\025\000\000\000\023\000\000\000\\\000\000\000K\000\000\000\024\000\000\000\027\000\000\000\007\000\000\000\010\000\000\000\025\000\000\000\023\000\000\000\006\000\000\000\t\000\000\000\010\000\000\000\t\000\000\000\010\000\000\000\t\000\000\000\010\000\000\000\t\000\000\000\010\000\000\000\t\000\000\0001\000\000\000\010\000\000\000Y\000\000\000\007\000\000\000\t\000\000\000\006\000\000\000\010\000\000\000\007\000\000\000\006\000\000\000\t\000\000\000\030\000\000\000\020\000\000\000\017\000\000\000\002\000\000\000\021\000\000\000N\000\000\000\003\000\000\000\002\000\000\000#\000\000\000\003\000\000\000\"\000\000\000#\000\000\000&\000\000\000*\000\000\000\"\000\000\000#\000\000\000&\000\000\000*\000\000\000\"\000\000\000#\000\000\000\"\000\000\000#\000\000\000\002\000\000\000\"\000\000\000P\000\000\000\003\000\000\000\002\000\000\000\020\000\000\000\003\000\000\000\021\000\000\000!\000\000\000(\000\000\000\005\000\000\000\001\000\000\000A\000\000\000\000\000\000\000\001\000\000\000\000\000\000\000\001\000\000\000\000\000\000\000\001\000\000\000\000\000\000\000\001\000\000\000\000\000\000\000\001\000\000\000\000\000\000\000\001\000\000\000\000\000\000\000\001\000\000\000E\000\000\000\000\000\000\000\001\000\000\000\'\000\000\000\024\000\000\000\r\000\000\000\016\000\000\000\023\000\000\000\013\000\000\000\n\000\000\000\006\000\000\000\000\000\000\000\014\000\000\000(\000\000\000\017\000\000\000D\000\000\000\001\000\000\000@\000\000\000\037\000\000\000F\000\000\000\000\000\000\000\'\000\000\000\035\000\000\000\001\000\000\000\037\000\000\000\035\000\000\000\037\000\000\0005\000\000\0008\000\000\000\035\000\000\000\000\000\000\000^\000\000\000\001\000\000\000\000\000\000\000>\000\000\000\001\000\000\000.\000\000\000\000\000\000\000^\000\000\000>\000\000\000.\000\000\000\001\000\000\000\000\000\000\000\001\000\000\000\000\000\000\000,\000\000\000\001\000\000\000+\000\000\000\000\000\000\000\001\000\000\000\000\000\000\000<\000\000\000\001\000\000\000\037\000\000\000\000\000\000\000\013\000\000\000;\000\000\000\035\000\000\000\014\000\000\000\037\000\000\000\035\000\000\000\001\000\000\000\000\000\000\000<\000\000\000\001\000\000\000\013\000\000\000\000\000\000\000;\000\000\000\014\000\000\000\016\000\000\000\013\000\000\000\001\000\000\000\020\000\000\000\017\000\000\000\014\000\000\000\016\000\000\000\013\000\000\000\000\000\000\000\021\000\000\000\014\000\000\000\017\000\000\000\004\000\000\000\001\000\000\000\000\000\000\000\001\000\000\000\000\000\000\000\005\000\000\000(\000\000\000@\000\000\000_\000\000\000\'\000\000\000\001\000\000\000\000\000\000\000\001\000\000\000\000\000\000\000\001\000\000\000\000\000\000\000\001\000\000\000\000\000\000\000\001\000\000\000\000\000\000\000\001\000\000\000\000\000\000\000\001\000\000\000,\000\000\000+\000\000\000\000\000\000\000\004\000\000\000\005\000\000\000\001\000\000\000\037\000\000\000\035\000\000\000\000\000\000\000\013\000\000\000\037\000\000\000\016\000\000\000\035\000\000\000\020\000\000\000\001\000\000\000\014\000\000\000\017\000\000\000\024\000\000\000\r\000\000\000\007\000\000\000\021\000\000\000\007\000\000\000\010\000\000\000\r\000\000\000\024\000\000\000\t\000\000\000\016\000\000\000\013\000\000\000\023\000\000\000\000\000\000\000\006\000\000\000\n\000\000\000\004\000\000\000\014\000\000\000\022\000\000\000\017\000\000\000\034\000\000\000\001\000\000\000\005\000\000\000\033\000\000\000\004\000\000\000\037\000\000\000\000\000\000\000\035\000\000\000\026\000\000\000\001\000\000\000\032\000\000\000\005\000\000\000\004\000\000\000\000\000\000\000\037\000\000\000\022\000\000\000\032\000\000\000\035\000\000\000\001\000\000\000\005\000\000\000\004\000\000\000\000\000\000\000\013\000\000\000\016\000\000\000\026\000\000\000\005\000\000\000\r\000\000\000\024\000\000\000\001\000\000\000\007\000\000\000\023\000\000\000\014\000\000\000\027\000\000\000\017\000\000\000\006\000\000\000\n\000\000\000\007\000\000\000\r\000\000\000\024\000\000\000\025\000\000\000\013\000\000\000\006\000\000\000\016\000\000\000\023\000\000\000\n\000\000\000\000\000\000\000\037\000\000\000\014\000\000\000\017\000\000\000\035\000\000\000\037\000\000\000\035\000\000\000\001\000\000\000\004\000\000\000\000\000\000\000\037\000\000\000\022\000\000\000\034\000\000\000\001\000\000\000\035\000\000\000\037\000\000\000\005\000\000\000\035\000\000\000\033\000\000\000\004\000\000\000\000\000\000\000\000\000\000\000\004\000\000\000X\000\000\000(\000\000\000\035\000\000\000!\000\000\000\005\000\000\000\001\000\000\000\037\000\000\000\035\000\000\0008\000\000\000S\000\000\000L\000\000\000A\000\000\000\037\000\000\000\035\000\000\000\037\000\000\000\035\000\000\000\037\000\000\000\035\000\000\000\037\000\000\000\035\000\000\000\037\000\000\000\035\000\000\000\037\000\000\000\035\000\000\000\037\000\000\000\035\000\000\000E\000\000\000M\000\000\000\'\000\000\000\037\000\000\000\000\000\000\000\035\000\000\000\013\000\000\000\016\000\000\000\001\000\000\000\007\000\000\000\r\000\000\000\016\000\000\000\013\000\000\000\t\000\000\000\000\000\000\000\n\000\000\000\006\000\000\000\014\000\000\000\004\000\000\000\022\000\000\000\017\000\000\000\034\000\000\000\001\000\000\000\005\000\000\000C\000\000\0008\000\000\000\004\000\000\000%\000\000\000\026\000\000\000\005\000\000\000\022\000\000\000\026\000\000\000\004\000\000\000\000\000\000\000!\000\000\000\013\000\000\000\005\000\000\000\001\000\000\000\014\000\000\000\013\000\000\000\014\000\000\000\000\000\000\000\004\000\000\000\005\000\000\000\004\000\000\000\005\000\000\000\004\000\000\000\001\000\000\000\022\000\000\000\026\000\000\000\022\000\000\000\026\000\000\000\022\000\000\000\005\000\000\000\033\000\000\000\034\000\000\000\004\000\000\000\000\000\000\000\026\000\000\000\005\000\000\000\013\000\000\000\001\000\000\000\014\000\000\000\013\000\000\000\016\000\000\000\020\000\000\000\014\000\000\000\002\000\000\000\017\000\000\000#\000\000\000\003\000\000\000\021\000\000\000&\000\000\000\"\000\000\000\002\000\000\000*\000\000\000\003\000\000\000\002\000\000\000\003\000\000\000\002\000\000\000\020\000\000\000\003\000\000\000\024\000\000\000\021\000\000\000\r\000\000\000\007\000\000\000\027\000\000\000\023\000\000\000\006\000\000\000\n\000\000\0004\000\000\000\025\000\000\000\027\000\000\000\025\000\000\0006\000\000\000B\000\000\0002\000\000\000\010\000\000\000I\000\000\0000\000\000\000\030\000\000\000\t\000\000\000\007\000\000\000\r\000\000\000\024\000\000\000\006\000\000\000\016\000\000\000\031\000\000\000\013\000\000\000\023\000\000\000\n\000\000\000\000\000\000\000\014\000\000\000\004\000\000\000\017\000\000\000\022\000\000\000\005\000\000\000\001\000\000\000\033\000\000\000\004\000\000\000\000\000\000\000\013\000\000\000\005\000\000\000\026\000\000\000\016\000\000\000\010\000\000\0003\000\000\000\006\000\000\000\t\000\000\000\010\000\000\000\037\000\000\000\035\000\000\0001\000\000\000\t\000\000\000\010\000\000\000\t\000\000\000\010\000\000\000\037\000\000\000\035\000\000\000\t\000\000\000\010\000\000\000\t\000\000\000\010\000\000\000\t\000\000\000\010\000\000\000\007\000\000\000\027\000\000\000\t\000\000\000\006\000\000\000\025\000\000\000\024\000\000\000\023\000\000\000\024\000\000\000\023\000\000\000\037\000\000\000\035\000\000\0005\000\000\0008\000\000\000\024\000\000\000\023\000\000\000\024\000\000\000\023\000\000\000\024\000\000\000\024\000\000\000\023\000\000\000\024\000\000\000\023\000\000\000\024\000\000\000\023\000\000\000\024\000\000\000\027\000\000\000\007\000\000\000\010\000\000\000\037\000\000\000\025\000\000\000\023\000\000\000\006\000\000\000\035\000\000\000\007\000\000\000\027\000\000\000\037\000\000\000\025\000\000\000\035\000\000\000\006\000\000\000\t\000\000\000\010\000\000\000\t\000\000\000\010\000\000\000\t\000\000\0003\000\000\000\010\000\000\000\t\000\000\000\010\000\000\000\t\000\000\000\010\000\000\000\t\000\000\0008\000\000\0005\000\000\0001\000\000\000\010\000\000\000\007\000\000\000\024\000\000\000\020\000\000\000\006\000\000\000\023\000\000\000\n\000\000\000\002\000\000\0009\000\000\000\021\000\000\0009\000\000\000/\000\000\000\003\000\000\000\020\000\000\000\002\000\000\000\021\000\000\000\002\000\000\000-\000\000\000\003\000\000\000\037\000\000\000\035\000\000\000\002\000\000\0007\000\000\0007\000\000\000\003\000\000\000\037\000\000\000\002\000\000\000\035\000\000\000\003\000\000\000\002\000\000\000\003\000\000\000\002\000\000\000\003\000\000\000\002\000\000\000\003\000\000\000\037\000\000\000\035\000\000\000\002\000\000\000\003\000\000\000\002\000\000\000\003\000\000\000\002\000\000\000\003\000\000\000\002\000\000\000\003\000\000\000\002\000\000\000\003\000\000\000\002\000\000\000\020\000\000\000\002\000\000\000\021\000\000\000\020\000\000\000\024\000\000\000\r\000\000\000\007\000\000\000\007\000\000\000\020\000\000\000\023\000\000\000\006\000\000\000\n\000\000\000\002\000\000\000\021\000\000\000$\000\000\000\003\000\000\000)\000\000\000N\000\000\000#\000\000\000\"\000\000\000\037\000\000\000\035\000\000\000#\000\000\000\"\000\000\000\037\000\000\000\035\000\000\000P\000\000\000&\000\000\000#\000\000\000\"\000\000\000\037\000\000\000\035\000\000\000\037\000\000\000*\000\000\000#\000\000\000\035\000\000\000\"\000\000\000#\000\000\000\002\000\000\000\"\000\000\000\020\000\000\000\003\000\000\000\021\000\000\000\002\000\000\000#\000\000\000\003\000\000\000\"\000\000\000#\000\000\000\"\000\000\000\002\000\000\000\003\000\000\000$\000\000\000\002\000\000\000)\000\000\000#\000\000\000\020\000\000\000\"\000\000\000\003\000\000\000\024\000\000\000\r\000\000\000\007\000\000\000\021\000\000\000\n\000\000\000\006\000\000\000\023\000\000\000\007\000\000\000\030\000\000\000\036\000\000\000\006\000\000\000?\000\000\000\031\000\000\000 \000\000\000\036\000\000\000\007\000\000\000\030\000\000\000\r\000\000\000 \000\000\000\031\000\000\000\n\000\000\000\r\000\000\000\030\000\000\000\036\000\000\000\n\000\000\000\006\000\000\000\031\000\000\000 \000\000\0008\000\000\0005\000\000\000\036\000\000\000\030\000\000\000\r\000\000\000\007\000\000\000 \000\000\000\n\000\000\000\031\000\000\000\024\000\000\000\023\000\000\000\006\000\000\000\007\000\000\000\r\000\000\000\030\000\000\000\036\000\000\000\006\000\000\000\n\000\000\000\031\000\000\000 \000\000\000H\000\000\000\036\000\000\000\030\000\000\000\n\000\000\000\013\000\000\000\023\000\000\000\016\000\000\000\000\000\000\000\006\000\000\000\004\000\000\000\014\000\000\000\017\000\000\000\034\000\000\000\005\000\000\000\001\000\000\000\004\000\000\000\033\000\000\000\032\000\000\000.\000\000\000\032\000\000\000\005\000\000\000>\000\000\000:\000\000\000\004\000\000\000\000\000\000\000\005\000\000\000\001\000\000\000\004\000\000\000\000\000\000\000\005\000\000\000\001\000\000\000\r\000\000\000\013\000\000\000\016\000\000\000\007\000\000\0002\000\000\000\006\000\000\000\014\000\000\000\017\000\000\000\n\000\000\0000\000\000\000\007\000\000\000\r\000\000\000\006\000\000\000\n\000\000\000\013\000\000\000\016\000\000\000\000\000\000\000\014\000\000\000\017\000\000\000\001\000\000\000\004\000\000\000\000\000\000\000\000\000\000\000\034\000\000\000\005\000\000\000\001\000\000\000\001\000\000\000\004\000\000\000\000\000\000\000\033\000\000\000\005\000\000\000\001\000\000\000\r\000\000\000\013\000\000\000\016\000\000\000\007\000\000\000\r\000\000\000\013\000\000\000\016\000\000\000\000\000\000\000\006\000\000\000\005\000\000\000\n\000\000\000\014\000\000\000\017\000\000\000\033\000\000\000\001\000\000\000\034\000\000\000G\000\000\000G\000\000\000G\000\000\000Q\000\000\000Q\000\000\000Q\000\000\000\004\000\000\000\033\000\000\000\000\000\000\000\001\000\000\000\005\000\000\000\004\000\000\000\000\000\000\000\020\000\000\000\005\000\000\000\001\000\000\000\016\000\000\000\002\000\000\000\017\000\000\000\003\000\000\000$\000\000\000&\000\000\000\002\000\000\000)\000\000\000*\000\000\000\024\000\000\000\003\000\000\000\r\000\000\000\021\000\000\0004\000\000\000\n\000\000\000\027\000\000\000\023\000\000\000\007\000\000\0002\000\000\0006\000\000\000\010\000\000\000B\000\000\000\006\000\000\000\025\000\000\000\t\000\000\000I\000\000\0000\000\000\000\007\000\000\000\r\000\000\000\016\000\000\000\006\000\000\000\004\000\000\000\000\000\000\000\n\000\000\000\013\000\000\000\014\000\000\000\005\000\000\000\001\000\000\000\017\000\000\000\004\000\000\000\005\000\000\000\034\000\000\000\004\000\000\000\033\000\000\000\000\000\000\000\036\000\000\000?\000\000\000 \000\000\000\030\000\000\000\036\000\000\000H\000\000\000\007\000\000\000\027\000\000\000 \000\000\000\007\000\000\000\031\000\000\000\025\000\000\000\006\000\000\000\006\000\000\000\020\000\000\000\n\000\000\000\023\000\000\000\016\000\000\000\000\000\000\000(\000\000\000\021\000\000\000\017\000\000\000\001\000\000\000F\000\000\000\000\000\000\000\001\000\000\000\000\000\000\000A\000\000\000\'\000\000\000.\000\000\000\032\000\000\000[\000\000\000:\000\000\000\013\000\000\000>\000\000\000\032\000\000\000\020\000\000\000\014\000\000\000\016\000\000\000\001\000\000\000\017\000\000\000\021\000\000\000\020\000\000\000\016\000\000\000\000\000\000\000\013\000\000\000\021\000\000\000\014\000\000\000\017\000\000\000(\000\000\000\001\000\000\000c\000\000\000E\000\000\000\000\000\000\000\001\000\000\000\'\000\000\000\r\000\000\000\020\000\000\000\n\000\000\000\006\000\000\000N\000\000\000G\000\000\000Q\000\000\000\024\000\000\000\021\000\000\000\020\000\000\000\023\000\000\000\002\000\000\000\021\000\000\000\003\000\000\000\020\000\000\000\024\000\000\000\021\000\000\000\023\000\000\000\024\000\000\000\023\000\000\000P\000\000\000\024\000\000\000\020\000\000\000\002\000\000\000\021\000\000\000\023\000\000\000\003\000\000\000\020\000\000\000\021\000\000\000\r\000\000\000\024\000\000\000\023\000\000\000\007\000\000\000\020\000\000\000\n\000\000\000\002\000\000\000\006\000\000\000\023\000\000\000\003\000\000\000\021\000\000\000/\000\000\000-\000\000\0007\000\000\0009\000\000\000\002\000\000\0007\000\000\000\003\000\000\000\020\000\000\000\002\000\000\000\003\000\000\000\021\000\000\000\020\000\000\000\021\000\000\000\020\000\000\000\021\000\000\000\020\000\000\000\021\000\000\000\020\000\000\000\021\000\000\000\020\000\000\000\021\000\000\000\020\000\000\000\021\000\000\000G\000\000\000Q\000\000\000\020\000\000\000\021\000\000\000\020\000\000\000\n\000\000\000\013\000\000\000\023\000\000\000\016\000\000\000(\000\000\000\000\000\000\000\006\000\000\000\014\000\000\000\017\000\000\000@\000\000\000\001\000\000\000D\000\000\000\000\000\000\000\'\000\000\000\001\000\000\000\000\000\000\000\001\000\000\000\000\000\000\000<\000\000\000\001\000\000\000\013\000\000\000;\000\000\000b\000\000\000\014\000\000\000\000\000\000\000a\000\000\000.\000\000\000\032\000\000\000\032\000\000\000\001\000\000\000.\000\000\000:\000\000\000\000\000\000\000,\000\000\000+\000\000\000,\000\000\000+\000\000\000\001\000\000\000\000\000\000\000\004\000\000\000\005\000\000\000\001\000\000\000\004\000\000\000\000\000\000\000\005\000\000\000\001\000\000\000\000\000\000\000,\000\000\000+\000\000\000\001\000\000\000\000\000\000\000\001\000\000\000\000\000\000\000\001\000\000\000\000\000\000\000,\000\000\000\001\000\000\000\000\000\000\000+\000\000\000\001\000\000\000\000\000\000\000\013\000\000\000\016\000\000\000\020\000\000\000\017\000\000\000\014\000\000\000\001\000\000\000\024\000\000\000\021\000\000\000\r\000\000\000\013\000\000\000\016\000\000\000\000\000\000\000\n\000\000\000\014\000\000\000\023\000\000\000\017\000\000\000(\000\000\000d\000\000\000\'\000\000\000\013\000\000\000\016\000\000\000\001\000\000\000\r\000\000\000\014\000\000\000\024\000\000\000\007\000\000\000\017\000\000\000\n\000\000\000\023\000\000\0003\000\000\000\t\000\000\000\010\000\000\000\t\000\000\000\010\000\000\000\t\000\000\000\010\000\000\000\t\000\000\000\010\000\000\000\t\000\000\000\010\000\000\000\t\000\000\000\010\000\000\000\t\000\000\000\010\000\000\000\t\000\000\000\010\000\000\000\007\000\000\000\027\000\000\000$\000\000\000&\000\000\000\t\000\000\000\006\000\000\000\025\000\000\000)\000\000\000*\000\000\000G\000\000\000Q\000\000\000$\000\000\000)\000\000\000$\000\000\000\007\000\000\000\027\000\000\000)\000\000\000\010\000\000\000\006\000\000\000\025\000\000\000\t\000\000\000\010\000\000\000\t\000\000\0001\000\000\000\010\000\000\000\007\000\000\000\t\000\000\000\007\000\000\000\016\000\000\000\r\000\000\000\013\000\000\000\006\000\000\000\014\000\000\000\004\000\000\000\000\000\000\000\n\000\000\000\017\000\000\000\022\000\000\000\001\000\000\000\005\000\000\000\034\000\000\000\004\000\000\000\000\000\000\000\032\000\000\000\026\000\000\000\005\000\000\000=\000\000\000\001\000\000\000\000\000\000\000=\000\000\000\032\000\000\000\013\000\000\000\034\000\000\000\004\000\000\000\001\000\000\000\022\000\000\000\014\000\000\000\005\000\000\000\000\000\000\000\004\000\000\000\026\000\000\000\001\000\000\000\005\000\000\000\013\000\000\000\r\000\000\000\016\000\000\000\007\000\000\000\006\000\000\000\014\000\000\000\027\000\000\000\017\000\000\000\n\000\000\000\025\000\000\000\034\000\000\000\027\000\000\000\r\000\000\000\007\000\000\000\013\000\000\000\006\000\000\000\016\000\000\000\n\000\000\000\025\000\000\000\002\000\000\000\014\000\000\000\020\000\000\000\017\000\000\000\021\000\000\000#\000\000\000\003\000\000\000&\000\000\000\"\000\000\000\020\000\000\000#\000\000\000\002\000\000\000*\000\000\000\007\000\000\000\021\000\000\000\"\000\000\000\027\000\000\000\r\000\000\000\003\000\000\000\025\000\000\000\n\000\000\000\006\000\000\000\027\000\000\000\010\000\000\000\016\000\000\000\r\000\000\000\t\000\000\000\013\000\000\000\025\000\000\000\n\000\000\000\017\000\000\000\000\000\000\000\014\000\000\000\001\000\000\000C\000\000\000O\000\000\000\000\000\000\000\004\000\000\000\022\000\000\000\001\000\000\000\033\000\000\000\005\000\000\000\000\000\000\000\013\000\000\000\013\000\000\000\r\000\000\000\024\000\000\000\016\000\000\000\004\000\000\000\n\000\000\000\023\000\000\000\022\000\000\000\000\000\000\000\017\000\000\000\014\000\000\000\005\000\000\000\001\000\000\000\033\000\000\000\034\000\000\000\033\000\000\000\004\000\000\000\000\000\000\000\005\000\000\000\013\000\000\000\026\000\000\000\016\000\000\000\001\000\000\000\r\000\000\000\007\000\000\000\014\000\000\000\017\000\000\000\016\000\000\000\006\000\000\000\013\000\000\000\n\000\000\000\017\000\000\000\014\000\000\000\000\000\000\000\004\000\000\000\001\000\000\000\022\000\000\000\005\000\000\000\004\000\000\000%\000\000\000\026\000\000\000\005\000\000\000\004\000\000\000\022\000\000\000!\000\000\000\026\000\000\000%\000\000\000\022\000\000\000\034\000\000\000!\000\000\000\005\000\000\000\004\000\000\000%\000\000\000\026\000\000\000!\000\000\000\022\000\000\000\005\000\000\000%\000\000\000\026\000\000\000\004\000\000\000!\000\000\000\022\000\000\000\005\000\000\000\033\000\000\000\004\000\000\000\000\000\000\000\001\000\000\000\013\000\000\000\026\000\000\000\016\000\000\000\r\000\000\000\005\000\000\000\007\000\000\000\025\000\000\000\014\000\000\000\030\000\000\000\017\000\000\000\006\000\000\000\n\000\000\000\030\000\000\000\010\000\000\000\031\000\000\000\t\000\000\000\010\000\000\000\t\000\000\000\010\000\000\000\t\000\000\000\010\000\000\0002\000\000\0000\000\000\000\027\000\000\000\t\000\000\000B\000\000\0002\000\000\000\025\000\000\0000\000\000\000I\000\000\0004\000\000\0006\000\000\0004\000\000\0006\000\000\0004\000\000\000$\000\000\0006\000\000\000)\000\000\000\027\000\000\0004\000\000\000\r\000\000\000\016\000\000\000\020\000\000\0006\000\000\000\025\000\000\000\n\000\000\000\002\000\000\000\017\000\000\000\003\000\000\000#\000\000\000\021\000\000\000&\000\000\000\"\000\000\000#\000\000\000*\000\000\000\"\000\000\000\002\000\000\000\016\000\000\000\020\000\000\000\013\000\000\000\003\000\000\000\000\000\000\000\014\000\000\000\022\000\000\000\017\000\000\000\004\000\000\000\021\000\000\000\034\000\000\000G\000\000\000O\000\000\000\033\000\000\000\001\000\000\000\000\000\000\000\013\000\000\000\016\000\000\000\026\000\000\000\005\000\000\000\001\000\000\000\020\000\000\000\t\000\000\000\024\000\000\000\n\000\000\000\021\000\000\000\006\000\000\000\023\000\000\000\002\000\000\0007\000\000\0009\000\000\000\003\000\000\0007\000\000\000/\000\000\000\002\000\000\000G\000\000\000O\000\000\000\003\000\000\000-\000\000\000\002\000\000\000\003\000\000\000\002\000\000\000\003\000\000\000\002\000\000\000\003\000\000\000\002\000\000\000\003\000\000\000\002\000\000\000\003\000\000\000\002\000\000\000\003\000\000\000\002\000\000\000\003\000\000\000\002\000\000\000\003\000\000\000\002\000\000\000\003\000\000\000\002\000\000\000\020\000\000\000\r\000\000\000\024\000\000\000\007\000\000\000\030\000\000\000\036\000\000\000?\000\000\000\006\000\000\000\031\000\000\000 \000\000\000\023\000\000\000\n\000\000\000\036\000\000\000\030\000\000\000\007\000\000\000\r\000\000\000\031\000\000\000 \000\000\000\006\000\000\000\027\000\000\000\n\000\000\000\007\000\000\000\025\000\000\000\006\000\000\000\007\000\000\000\006\000\000\000\020\000\000\000\013\000\000\000\016\000\000\000\017\000\000\000(\000\000\000\000\000\000\000\014\000\000\000D\000\000\000\021\000\000\000\001\000\000\000\000\000\000\000\001\000\000\000F\000\000\000\000\000\000\000C\000\000\000O\000\000\000\032\000\000\000\001\000\000\000]\000\000\000\000\000\000\000\032\000\000\000\001\000\000\000@\000\000\000\000\000\000\000\032\000\000\000T\000\000\000\001\000\000\000=\000\000\000\000\000\000\000\'\000\000\000\001\000\000\000\000\000\000\000\001\000\000\000\000\000\000\000\001\000\000\000\000\000\000\000\001\000\000\000\032\000\000\000\000\000\000\000=\000\000\000\001\000\000\000,\000\000\000\001\000\000\000+\000\000\000\000\000\000\000\001\000\000\000\000\000\000\000\032\000\000\000\004\000\000\000\005\000\000\000\001\000\000\000\000\000\000\000\001\000\000\000\000\000\000\000\001\000\000\000\000\000\000\000\001\000\000\000\000\000\000\000\001\000\000\000+\000\000\000\000\000\000\000,\000\000\000\001\000\000\000+\000\000\000\000\000\000\000\001\000\000\000\000\000\000\000\004\000\000\000\005\000\000\000\013\000\000\000O\000\000\000C\000\000\000\001\000\000\000\016\000\000\000\020\000\000\000\017\000\000\000\014\000\000\000\r\000\000\000$\000\000\000\027\000\000\000\n\000\000\000N\000\000\000)\000\000\000\025\000\000\000\024\000\000\000\023\000\000\000\027\000\000\000P\000\000\000$\000\000\000\007\000\000\000\025\000\000\000)\000\000\000\006\000\000\000\007\000\000\000\010\000\000\000\023\000\000\000\n\000\000\000\006\000\000\000\t\000\000\0003\000\000\000\010\000\000\000\t\000\000\000U\000\000\000\010\000\000\000\t\000\000\000\007\000\000\000\006\000\000\000\007\000\000\000\006\000\000\000C\000\000\000O\000\000\000\010\000\000\000\t\000\000\000\010\000\000\000\t\000\000\000\010\000\000\000\t\000\000\000\010\000\000\0001\000\000\000\t\000\000\000Y\000\000\000\010\000\000\000\t\000\000\000%\000\000\000\037\000\000\000!\000\000\000\000\000\000\000\035\000\000\000(\000\000\000\001\000\000\000L\000\000\000A\000\000\000\000\000\000\000E\000\000\000C\000\000\000\001\000\000\000O\000\000\000M\000\000\000\'\000\000\000\000\000\000\000\r\000\000\000\024\000\000\000\023\000\000\000\n\000\000\000\006\000\000\000\024\000\000\000\r\000\000\000\n\000\000\000\023\000\000\000\024\000\000\000\013\000\000\000\023\000\000\000\000\000\000\000(\000\000\000\016\000\000\000\017\000\000\000D\000\000\000\014\000\000\000@\000\000\000F\000\000\000\001\000\000\000\'\000\000\000\000\000\000\000\032\000\000\000\001\000\000\000=\000\000\000\000\000\000\000:\000\000\000\001\000\000\000\000\000\000\000\032\000\000\000\032\000\000\000\001\000\000\000\000\000\000\000\001\000\000\000,\000\000\000\000\000\000\000+\000\000\000\001\000\000\000\000\000\000\000<\000\000\000\001\000\000\000\000\000\000\000;\000\000\000\001\000\000\000\000\000\000\000<\000\000\000\001\000\000\000;\000\000\000\000\000\000\000(\000\000\000\001\000\000\000c\000\000\000\'\000\000\0005\000\000\000O\000\000\000\000\000\000\000\001\000\000\000\000\000\000\000\001\000\000\000\000\000\000\000\001\000\000\000\000\000\000\000\001\000\000\000\001\000\000\000\000\000\000\000\001\000\000\000\000\000\000\000\001\000\000\000\000\000\000\000\001\000\000\000,\000\000\000\000\000\000\000+\000\000\000\001\000\000\000\013\000\000\000\016\000\000\000\020\000\000\000\014\000\000\000\017\000\000\000\r\000\000\000\021\000\000\000\n\000\000\000\007\000\000\000\006\000\000\000\023\000\000\000\017\000\000\000\n\000\000\000\007\000\000\000\024\000\000\000\r\000\000\000\006\000\000\000\023\000\000\000\020\000\000\000\002\000\000\000\n\000\000\000\021\000\000\000\003\000\000\000\002\000\000\000\003\000\000\000\002\000\000\000N\000\000\000\003\000\000\000P\000\000\000\002\000\000\0005\000\000\000O\000\000\000\003\000\000\000\002\000\000\000\003\000\000\000\002\000\000\000\003\000\000\000\002\000\000\000\003\000\000\000\002\000\000\000\003\000\000\000\002\000\000\000\003\000\000\000\002\000\000\000\003\000\000\000\002\000\000\000\020\000\000\000\r\000\000\000\024\000\000\000\007\000\000\000\003\000\000\000\021\000\000\000\023\000\000\000\006\000\000\000\n\000\000\000\007\000\000\000\006\000\000\000\007\000\000\000\036\000\000\000?\000\000\000\030\000\000\000\006\000\000\000\031\000\000\000 \000\000\000H\000\000\000\030\000\000\000\036\000\000\000\007\000\000\000\r\000\000\000\027\000\000\000\n\000\000\000\031\000\000\000 \000\000\000\006\000\000\000\025\000\000\000\027\000\000\000\007\000\000\000\025\000\000\000\r\000\000\000\n\000\000\000\006\000\000\000\007\000\000\000\007\000\000\000\r\000\000\000\006\000\000\000\024\000\000\000\007\000\000\000\036\000\000\000\030\000\000\000\037\000\000\000W\000\000\000 \000\000\000\031\000\000\000\n\000\000\000\006\000\000\000`\000\000\000V\000\000\000\023\000\000\000\035\000\000\000\027\000\000\000\010\000\000\000\007\000\000\000\025\000\000\000\006\000\000\000\t\000\000\000\010\000\000\000\t\000\000\000\007\000\000\000\r\000\000\000\010\000\000\000\024\000\000\000\020\000\000\000\023\000\000\000\002\000\000\000\n\000\000\000\t\000\000\000\006\000\000\000\021\000\000\000\003\000\000\000\002\000\000\000\002\000\000\000/\000\000\000-\000\000\000\003\000\000\000\002\000\000\0005\000\000\000O\000\000\000\003\000\000\000\002\000\000\000\003\000\000\000\002\000\000\000\003\000\000\000\002\000\000\000\003\000\000\000\002\000\000\000\003\000\000\000\002\000\000\000\003\000\000\000\002\000\000\000\020\000\000\000\r\000\000\000\024\000\000\000\003\000\000\000\021\000\000\000\023\000\000\000\n\000\000\000\r\000\000\000\n\000\000\000\r\000\000\000\024\000\000\000\023\000\000\000\n\000\000\000\r\000\000\000\n\000\000\000\r\000\000\000\024\000\000\000\023\000\000\000\n\000\000\000\016\000\000\000\000\000\000\000\005\000\000\000\034\000\000\000\022\000\000\000\017\000\000\000\001\000\000\000\033\000\000\000\004\000\000\000\034\000\000\000\033\000\000\000\034\000\000\000\026\000\000\000\034\000\000\000%\000\000\000!\000\000\000\022\000\000\000\000\000\000\000\026\000\000\000\005\000\000\000\004\000\000\000\001\000\000\000\022\000\000\000\026\000\000\000\034\000\000\000\022\000\000\000\005\000\000\0005\000\000\000O\000\000\000\033\000\000\000\000\000\000\000\004\000\000\000\013\000\000\000\016\000\000\000\026\000\000\000\023\000\000\000\005\000\000\000\014\000\000\000\001\000\000\000\020\000\000\000\024\000\000\000\017\000\000\000\002\000\000\000\023\000\000\000\021\000\000\000#\000\000\000\"\000\000\000&\000\000\000\003\000\000\000\002\000\000\000#\000\000\000\020\000\000\000*\000\000\000\r\000\000\000\"\000\000\000\007\000\000\000\027\000\000\000\003\000\000\000\n\000\000\0002\000\000\000\021\000\000\000\025\000\000\000\010\000\000\000\006\000\000\0000\000\000\000\007\000\000\000\r\000\000\000\016\000\000\000\013\000\000\000\006\000\000\000\017\000\000\000\000\000\000\000\n\000\000\000\t\000\000\000\014\000\000\000\004\000\000\000\034\000\000\000\005\000\000\000\022\000\000\000\001\000\000\000\026\000\000\000\033\000\000\000\016\000\000\000\013\000\000\000\000\000\000\000\026\000\000\000\001\000\000\000\r\000\000\000\024\000\000\000\007\000\000\000\014\000\000\000\017\000\000\000\023\000\000\000\n\000\000\000\006\000\000\000\030\000\000\000\036\000\000\000\007\000\000\000V\000\000\000\035\000\000\000\010\000\000\000X\000\000\000\006\000\000\000\031\000\000\000 \000\000\000\t\000\000\000\010\000\000\000\t\000\000\000\010\000\000\000\t\000\000\000\010\000\000\000\t\000\000\000\010\000\000\000\t\000\000\000\010\000\000\000\027\000\000\000\007\000\000\000\024\000\000\000\006\000\000\000\t\000\000\000\025\000\000\000\023\000\000\0005\000\000\000O\000\000\000\027\000\000\000\025\000\000\000\027\000\000\000\007\000\000\000\006\000\000\000\010\000\000\000\025\000\000\000\t\000\000\000\010\000\000\000\t\000\000\000\010\000\000\000\t\000\000\000\030\000\000\000\010\000\000\000\036\000\000\000\031\000\000\000\037\000\000\000\t\000\000\000W\000\000\000\030\000\000\000\007\000\000\000\031\000\000\000V\000\000\000 \000\000\000\r\000\000\000\n\000\000\000\r\000\000\000\024\000\000\000\006\000\000\000\n\000\000\000\r\000\000\000\n\000\000\000\023\000\000\000\016\000\000\000\024\000\000\000\013\000\000\000\000\000\000\000\004\000\000\000\023\000\000\000\022\000\000\000\017\000\000\000\014\000\000\000\005\000\000\000\001\000\000\000\001\000\000\000\004\000\000\000\032\000\000\000\005\000\000\000\026\000\000\000T\000\000\000\004\000\000\000\000\000\000\000\022\000\000\000\032\000\000\000\005\000\000\000\001\000\000\000\000\000\000\000\004\000\000\000\014\000\000\000\005\000\000\000\026\000\000\000\r\000\000\000\016\000\000\000\001\000\000\000\007\000\000\000\024\000\000\000\027\000\000\000\023\000\000\000\n\000\000\0002\000\000\000\017\000\000\000\006\000\000\000\016\000\000\0000\000\000\000\025\000\000\000\r\000\000\000\013\000\000\000\017\000\000\000\n\000\000\000\014\000\000\000\000\000\000\000\001\000\000\000\022\000\000\000\004\000\000\000\034\000\000\000\033\000\000\000\000\000\000\000\026\000\000\000\024\000\000\000\r\000\000\000\005\000\000\000\001\000\000\000\016\000\000\000\037\000\000\000\035\000\000\000\037\000\000\000\035\000\000\000%\000\000\000`\000\000\000\037\000\000\000\004\000\000\000\005\000\000\000!\000\000\000\000\000\000\000(\000\000\000\035\000\000\000X\000\000\000\001\000\000\000L\000\000\000A\000\000\000\022\000\000\000\026\000\000\000E\000\000\0005\000\000\000O\000\000\000M\000\000\000\000\000\000\000\'\000\000\000\004\000\000\000\037\000\000\000%\000\000\000\016\000\000\000\013\000\000\000\r\000\000\000\007\000\000\000\014\000\000\000\010\000\000\000\017\000\000\000\n\000\000\000\006\000\000\0003\000\000\000\t\000\000\000\010\000\000\0001\000\000\000\t\000\000\000\010\000\000\000\t\000\000\000\010\000\000\000\t\000\000\000\010\000\000\000\t\000\000\000\010\000\000\000U\000\000\000\t\000\000\000\010\000\000\000\t\000\000\000\010\000\000\000\t\000\000\0008\000\000\000S\000\000\000\010\000\000\000\t\000\000\000\010\000\000\000\t\000\000\000\010\000\000\000\027\000\000\000\007\000\000\000\t\000\000\000\025\000\000\000\006\000\000\0008\000\000\0005\000\000\000\027\000\000\000\007\000\000\000\025\000\000\000\027\000\000\000\010\000\000\000\025\000\000\000\006\000\000\000\t\000\000\000\010\000\000\000\t\000\000\000\010\000\000\000\t\000\000\000\010\000\000\000\t\000\000\000\010\000\000\0003\000\000\000\t\000\000\0001\000\000\0003\000\000\0003\000\000\0001\000\000\0003\000\000\0001\000\000\0003\000\000\0001\000\000\000\030\000\000\000\031\000\000\000\007\000\000\000\006\000\000\000\007\000\000\000\030\000\000\000\036\000\000\000\006\000\000\000?\000\000\000\r\000\000\000\031\000\000\000 \000\000\000\n\000\000\000\036\000\000\000\030\000\000\000\007\000\000\000\r\000\000\000 \000\000\000\027\000\000\000\031\000\000\000\n\000\000\000\006\000\000\000$\000\000\000\025\000\000\000\027\000\000\000)\000\000\000\r\000\000\000\007\000\000\000\030\000\000\000\036\000\000\000\n\000\000\000\025\000\000\000\006\000\000\000 \000\000\000\031\000\000\000H\000\000\000\036\000\000\000\030\000\000\000\007\000\000\000\027\000\000\000 \000\000\000\031\000\000\000\006\000\000\000\025\000\000\000\024\000\000\000$\000\000\000)\000\000\000\023\000\000\000N\000\000\000P\000\000\000\024\000\000\000$\000\000\000)\000\000\000\023\000\000\000$\000\000\000\024\000\000\000\023\000\000\000)\000\000\000\024\000\000\000\023\000\000\000\013\000\000\000\006\000\000\000\n\000\000\000\000\000\000\000\014\000\000\000\004\000\000\000\017\000\000\000\022\000\000\000\034\000\000\000\005\000\000\000\001\000\000\000\033\000\000\000\004\000\000\000\000\000\000\000\005\000\000\000\026\000\000\000\001\000\000\000T\000\000\000:\000\000\000\000\000\000\000\013\000\000\000\016\000\000\000\032\000\000\000\001\000\000\000\r\000\000\000\014\000\000\000\007\000\000\000\027\000\000\000\017\000\000\000\006\000\000\000\n\000\000\000\032\000\000\000\025\000\000\000\032\000\000\000\027\000\000\000\007\000\000\000\r\000\000\000\025\000\000\000\024\000\000\000\016\000\000\000\013\000\000\000\023\000\000\000\006\000\000\000\n\000\000\000\000\000\000\000\004\000\000\000\014\000\000\000\022\000\000\000\017\000\000\000\001\000\000\000\005\000\000\000\004\000\000\000\026\000\000\000\005\000\000\000\004\000\000\000\000\000\000\000\022\000\000\000\034\000\000\000\001\000\000\000\005\000\000\000\033\000\000\000\004\000\000\000\000\000\000\000\005\000\000\000\026\000\000\000\016\000\000\000\013\000\000\000\000\000\000\000\004\000\000\000\022\000\000\000\014\000\000\000\017\000\000\000\034\000\000\000\001\000\000\000\005\000\000\000\033\000\000\000\004\000\000\000\000\000\000\000\013\000\000\000\026\000\000\000\016\000\000\000\005\000\000\000\001\000\000\000\014\000\000\000\020\000\000\000\017\000\000\000\021\000\000\000\020\000\000\000\002\000\000\000\021\000\000\000&\000\000\000\003\000\000\000*\000\000\000&\000\000\000#\000\000\000\002\000\000\000&\000\000\000\020\000\000\000*\000\000\000\"\000\000\000\003\000\000\000\r\000\000\000\021\000\000\000\007\000\000\000\027\000\000\000\n\000\000\000\006\000\000\0004\000\000\000B\000\000\000\025\000\000\000I\000\000\0006\000\000\000B\000\000\0002\000\000\000\010\000\000\000I\000\000\0000\000\000\000\030\000\000\000\t\000\000\000\031\000\000\000\030\000\000\000\036\000\000\000W\000\000\000\037\000\000\000\031\000\000\000%\000\000\000 \000\000\000V\000\000\000\004\000\000\000\022\000\000\000\034\000\000\000\035\000\000\000!\000\000\000\005\000\000\000\004\000\000\000\000\000\000\000\026\000\000\000\013\000\000\000\005\000\000\000\001\000\000\000\014\000\000\000\000\000\000\000\004\000\000\000\001\000\000\000%\000\000\000\005\000\000\000\004\000\000\000\022\000\000\000!\000\000\000\005\000\000\000\004\000\000\000\005\000\000\000\026\000\000\000\022\000\000\000\026\000\000\000\022\000\000\000\004\000\000\000\005\000\000\000\004\000\000\000\005\000\000\000\033\000\000\000\004\000\000\000\000\000\000\000\013\000\000\000\016\000\000\000\005\000\000\000\026\000\000\000\001\000\000\000\024\000\000\000\020\000\000\000\n\000\000\000\006\000\000\000\023\000\000\000\021\000\000\000\020\000\000\000-\000\000\000\021\000\000\000/\000\000\000\002\000\000\000\003\000\000\000\020\000\000\000\021\000\000\000\020\000\000\000/\000\000\000\002\000\000\000\021\000\000\0008\000\000\0005\000\000\000\003\000\000\0007\000\000\0009\000\000\000\002\000\000\000\003\000\000\000\002\000\000\000\003\000\000\000\020\000\000\000\002\000\000\000\021\000\000\000\020\000\000\000\003\000\000\000\021\000\000\0007\000\000\000-\000\000\000\020\000\000\000\002\000\000\000\021\000\000\000\003\000\000\000\002\000\000\000\003\000\000\000\002\000\000\000\003\000\000\000\002\000\000\000\003\000\000\000\002\000\000\000\003\000\000\000\002\000\000\000\003\000\000\000\002\000\000\000\003\000\000\000\002\000\000\000\003\000\000\000\002\000\000\000\003\000\000\000\002\000\000\000\003\000\000\000\002\000\000\000\003\000\000\000\002\000\000\000\003\000\000\000\002\000\000\000\020\000\000\000\003\000\000\000\002\000\000\000\021\000\000\000\003\000\000\000\002\000\000\000\020\000\000\000\003\000\000\000\r\000\000\000\007\000\000\000\021\000\000\000\037\000\000\000%\000\000\000\035\000\000\000X\000\000\000\000\000\000\000\004\000\000\000\004\000\000\000\005\000\000\000!\000\000\000(\000\000\000\005\000\000\000\001\000\000\000L\000\000\000\000\000\000\000\001\000\000\000A\000\000\000\000\000\000\000\001\000\000\000S\000\000\0008\000\000\000\000\000\000\000\001\000\000\000\000\000\000\000\001\000\000\000M\000\000\000E\000\000\000L\000\000\000M\000\000\000\'\000\000\000\000\000\000\000\007\000\000\000\r\000\000\000\016\000\000\000\006\000\000\000\013\000\000\000\n\000\000\000\000\000\000\000\014\000\000\000(\000\000\000\017\000\000\000@\000\000\000\001\000\000\000F\000\000\000D\000\000\000\'\000\000\000\000\000\000\000\001\000\000\000\000\000\000\000\004\000\000\000\005\000\000\000\001\000\000\000\000\000\000\000\004\000\000\000\005\000\000\000\001\000\000\0005\000\000\0008\000\000\000\000\000\000\000\004\000\000\000\005\000\000\000\001\000\000\000\000\000\000\000\001\000\000\000=\000\000\000=\000\000\000\000\000\000\000\032\000\000\000,\000\000\000\001\000\000\000+\000\000\000\000\000\000\000\001\000\000\000\000\000\000\000T\000\000\000\001\000\000\000=\000\000\000\032\000\000\000\000\000\000\000\032\000\000\000\001\000\000\000\000\000\000\000\001\000\000\000\000\000\000\000\001\000\000\000\000\000\000\000\001\000\000\000\000\000\000\000\001\000\000\000\000\000\000\000\001\000\000\000\000\000\000\000\001\000\000\000\000\000\000\000\000\000\000\000\001\000\000\000\000\000\000\000\001\000\000\000\000\000\000\000\001\000\000\000\000\000\000\000\001\000\000\000\000\000\000\000\001\000\000\000,\000\000\000\000\000\000\000\001\000\000\000+\000\000\000\000\000\000\000\000\000\000\000\001\000\000\000\000\000\000\000\004\000\000\0005\000\000\0008\000\000\000(\000\000\000\005\000\000\000\001\000\000\000_\000\000\000\'\000\000\000\000\000\000\000\013\000\000\000\016\000\000\000\001\000\000\000\014\000\000\000\017\000\000\000\016\000\000\000\013\000\000\000\006\000\000\000\n\000\000\000\014\000\000\000\000\000\000\000\017\000\000\000\004\000\000\000\022\000\000\000\001\000\000\000\034\000\000\000\005\000\000\000\004\000\000\000\005\000\000\000\004\000\000\000\026\000\000\000\000\000\000\000\005\000\000\000\004\000\000\000\022\000\000\000\001\000\000\000\026\000\000\000\022\000\000\000\005\000\000\000\026\000\000\000\022\000\000\000\026\000\000\000\022\000\000\000\004\000\000\000\000\000\000\000\013\000\000\000\016\000\000\000\005\000\000\000\026\000\000\000\001\000\000\000\020\000\000\000\014\000\000\000\020\000\000\000\021\000\000\000\017\000\000\000\002\000\000\000\003\000\000\000\021\000\000\000&\000\000\000#\000\000\000*\000\000\000\"\000\000\000#\000\000\000\002\000\000\000\020\000\000\000\003\000\000\000\r\000\000\000\"\000\000\000\021\000\000\000\007\000\000\0008\000\000\000K\000\000\000\010\000\000\000\006\000\000\000\n\000\000\0002\000\000\000B\000\000\000\t\000\000\0000\000\000\000I\000\000\0002\000\000\000\007\000\000\000\r\000\000\0000\000\000\000\006\000\000\000\016\000\000\000\013\000\000\000\n\000\000\000\000\000\000\000\014\000\000\000\004\000\000\000\017\000\000\000\022\000\000\000\001\000\000\000\005\000\000\000\033\000\000\000\004\000\000\000\000\000\000\000\026\000\000\000\005\000\000\000\013\000\000\000\016\000\000\000\r\000\000\000\001\000\000\000\014\000\000\000\007\000\000\000\036\000\000\000\007\000\000\000 \000\000\000?\000\000\000\031\000\000\000\006\000\000\000\036\000\000\000\030\000\000\000\007\000\000\000\r\000\000\000\n\000\000\000 \000\000\000\031\000\000\000\006\000\000\000\027\000\000\000\025\000\000\000\007\000\000\000\030\000\000\000\036\000\000\000\006\000\000\000H\000\000\000\007\000\000\000\036\000\000\000\031\000\000\000 \000\000\000\006\000\000\000\007\000\000\000\006\000\000\000\r\000\000\000\016\000\000\000\013\000\000\000\006\000\000\000\n\000\000\000\000\000\000\000(\000\000\000\014\000\000\000\017\000\000\000@\000\000\000\001\000\000\0008\000\000\000K\000\000\000F\000\000\000D\000\000\000\000\000\000\000\001\000\000\000\013\000\000\000\016\000\000\000\r\000\000\000\014\000\000\000\007\000\000\000\017\000\000\000\n\000\000\000\006\000\000\000\010\000\000\000\t\000\000\000\007\000\000\000\r\000\000\000\016\000\000\000\013\000\000\000\n\000\000\000\006\000\000\000\014\000\000\000\000\000\000\000\017\000\000\000\001\000\000\000\000\000\000\000\001\000\000\000^\000\000\000\000\000\000\000.\000\000\000,\000\000\000\001\000\000\000.\000\000\000\000\000\000\000\001\000\000\000\000\000\000\000<\000\000\000\001\000\000\000\013\000\000\000;\000\000\000\014\000\000\000\000\000\000\000\001\000\000\000\000\000\000\000<\000\000\000\001\000\000\000\000\000\000\000;\000\000\000\001\000\000\000\000\000\000\000\'\000\000\000\001\000\000\000\000\000\000\000\001\000\000\000\000\000\000\000\004\000\000\000\005\000\000\000\001\000\000\000\000\000\000\000\001\000\000\000,\000\000\000+\000\000\000\000\000\000\000\001\000\000\000K\000\000\0008\000\000\000\000\000\000\000\001\000\000\000\000\000\000\000\001\000\000\000\000\000\000\000\000\000\000\000\001\000\000\000\000\000\000\000\001\000\000\000\000\000\000\000\001\000\000\000\000\000\000\000\001\000\000\000\000\000\000\000\001\000\000\000\000\000\000\000\004\000\000\000\005\000\000\000(\000\000\000\001\000\000\000\000\000\000\000c\000\000\000\001\000\000\000\'\000\000\000\000\000\000\000\013\000\000\000\016\000\000\000\020\000\000\000\002\000\000\000\014\000\000\000\001\000\000\000\017\000\000\000\021\000\000\000\020\000\000\000\003\000\000\000\024\000\000\000\021\000\000\000\r\000\000\000\007\000\000\000\010\000\000\0003\000\000\000\006\000\000\000\t\000\000\000\010\000\000\000\t\000\000\000\010\000\000\000U\000\000\000\t\000\000\000\010\000\000\000\t\000\000\000\010\000\000\000\t\000\000\000\010\000\000\000\t\000\000\000\010\000\000\000\t\000\000\000\010\000\000\000\t\000\000\000\010\000\000\000\t\000\000\000\010\000\000\000\t\000\000\000\027\000\000\000\007\000\000\000\006\000\000\000\025\000\000\000\007\000\000\000\006\000\000\000K\000\000\0008\000\000\000\007\000\000\000\027\000\000\000\025\000\000\000\010\000\000\000\006\000\000\000\t\000\000\000\010\000\000\000\t\000\000\000\010\000\000\000\t\000\000\000\010\000\000\000\t\000\000\000\010\000\000\0001\000\000\000\t\000\000\000\010\000\000\000\t\000\000\000\010\000\000\000\r\000\000\000\024\000\000\000\016\000\000\000\013\000\000\000\006\000\000\000\n\000\000\000\023\000\000\000\000\000\000\000\004\000\000\000\014\000\000\000\017\000\000\000\022\000\000\000\034\000\000\000\001\000\000\000\005\000\000\000\004\000\000\000\000\000\000\000\005\000\000\000\026\000\000\000\001\000\000\000^\000\000\000\000\000\000\000\004\000\000\000.\000\000\000\022\000\000\000\005\000\000\000\001\000\000\000.\000\000\000\026\000\000\000\022\000\000\000\004\000\000\000\000\000\000\000\026\000\000\000\013\000\000\000\016\000\000\000\005\000\000\000\001\000\000\000\r\000\000\000\007\000\000\000\014\000\000\000\027\000\000\000\017\000\000\000\006\000\000\000\n\000\000\000\025\000\000\000\027\000\000\000\007\000\000\000\r\000\000\000\025\000\000\000\024\000\000\000\016\000\000\000\006\000\000\000\013\000\000\000\023\000\000\000\n\000\000\000\014\000\000\000\000\000\000\000\017\000\000\000\001\000\000\000\000\000\000\000\004\000\000\000\022\000\000\000\001\000\000\000\005\000\000\000\033\000\000\000\004\000\000\000\000\000\000\000\026\000\000\000\013\000\000\000\005\000\000\000\016\000\000\000\r\000\000\000\024\000\000\000\020\000\000\000\023\000\000\000\n\000\000\000\002\000\000\0007\000\000\0009\000\000\0009\000\000\000\021\000\000\0007\000\000\0009\000\000\000\003\000\000\0007\000\000\000\002\000\000\000\003\000\000\000/\000\000\000-\000\000\000-\000\000\000/\000\000\000/\000\000\000-\000\000\000-\000\000\000/\000\000\000-\000\000\000-\000\000\000/\000\000\000/\000\000\000-\000\000\000/\000\000\000\002\000\000\000/\000\000\000\003\000\000\000\002\000\000\000-\000\000\000\003\000\000\000\002\000\000\000\003\000\000\000\002\000\000\000\003\000\000\000\002\000\000\000\003\000\000\000\002\000\000\000\003\000\000\000\002\000\000\000\003\000\000\000\002\000\000\000\003\000\000\000\002\000\000\000\003\000\000\000\002\000\000\000\003\000\000\000\002\000\000\000\003\000\000\000\002\000\000\000\003\000\000\000\002\000\000\000\003\000\000\000\002\000\000\000\003\000\000\000\002\000\000\000\003\000\000\000\002\000\000\000\003\000\000\000\002\000\000\000\003\000\000\000\002\000\000\000\020\000\000\000\003\000\000\000\002\000\000\000\003\000\000\000\002\000\000\000\r\000\000\000\003\000\000\000\007\000\000\000\021\000\000\000\r\000\000\000\n\000\000\000\r\000\000\000\n\000\000\000$\000\000\000\006\000\000\000\027\000\000\000\025\000\000\000\027\000\000\000)\000\000\000\025\000\000\000N\000\000\000\027\000\000\000\025\000\000\000\027\000\000\000\025\000\000\000\027\000\000\000P\000\000\000$\000\000\000\025\000\000\000\027\000\000\000)\000\000\000\007\000\000\000\025\000\000\000\007\000\000\000\r\000\000\000\016\000\000\000\006\000\000\000\n\000\000\000\013\000\000\000\000\000\000\000(\000\000\000\014\000\000\000\017\000\000\000\001\000\000\000\000\000\000\000\001\000\000\000A\000\000\000E\000\000\000A\000\000\000L\000\000\000\000\000\000\000\001\000\000\000\000\000\000\000\001\000\000\000\000\000\000\000\001\000\000\000\000\000\000\000\001\000\000\000\000\000\000\000\001\000\000\000\000\000\000\000\001\000\000\000\000\000\000\000\001\000\000\0008\000\000\000K\000\000\000\000\000\000\000\001\000\000\000\000\000\000\000\001\000\000\000\000\000\000\000\001\000\000\000\000\000\000\000\001\000\000\000M\000\000\000E\000\000\000\000\000\000\000\'\000\000\000\013\000\000\000\016\000\000\000\r\000\000\000\024\000\000\000\007\000\000\000\014\000\000\000\023\000\000\000\017\000\000\000\001\000\000\000\n\000\000\000\006\000\000\000\010\000\000\000\r\000\000\000\t\000\000\000\016\000\000\000\013\000\000\000\006\000\000\000\n\000\000\000\000\000\000\000\004\000\000\000\017\000\000\000\014\000\000\000\022\000\000\000\034\000\000\000\001\000\000\000\005\000\000\000\033\000\000\000\004\000\000\000\000\000\000\000\026\000\000\000\005\000\000\000\001\000\000\000[\000\000\000\032\000\000\000T\000\000\000>\000\000\000]\000\000\000.\000\000\000T\000\000\000\000\000\000\000\004\000\000\000\032\000\000\000\022\000\000\000\001\000\000\000\032\000\000\000\005\000\000\000\032\000\000\000\032\000\000\000\004\000\000\000\000\000\000\000\026\000\000\000\013\000\000\000\005\000\000\000\016\000\000\000\001\000\000\000\r\000\000\000\007\000\000\000\014\000\000\000\010\000\000\0002\000\000\000\017\000\000\000\006\000\000\000\t\000\000\0000\000\000\000\n\000\000\000\027\000\000\0002\000\000\000\025\000\000\000\007\000\000\000\r\000\000\0000\000\000\000\016\000\000\000\013\000\000\000\n\000\000\000\006\000\000\000\000\000\000\000\014\000\000\000\017\000\000\000\001\000\000\000\004\000\000\000\000\000\000\000\022\000\000\000\034\000\000\000\001\000\000\000\005\000\000\000\033\000\000\000\004\000\000\000`\000\000\000\037\000\000\000%\000\000\000\004\000\000\000\000\000\000\000X\000\000\000\035\000\000\000(\000\000\000!\000\000\000\005\000\000\000\001\000\000\000A\000\000\000L\000\000\000\000\000\000\000\001\000\000\000E\000\000\000M\000\000\000\'\000\000\000\000\000\000\000\013\000\000\000\000\000\000\000\013\000\000\000\017\000\000\000\014\000\000\000\004\000\000\000\021\000\000\000\022\000\000\000\034\000\000\000\001\000\000\000\005\000\000\000\004\000\000\000\000\000\000\000\005\000\000\000\013\000\000\000\026\000\000\000\001\000\000\000\014\000\000\000\000\000\000\000\004\000\000\000\001\000\000\000%\000\000\000\005\000\000\000\004\000\000\000\005\000\000\000\004\000\000\000!\000\000\000%\000\000\000!\000\000\000\022\000\000\000\005\000\000\000\004\000\000\000\005\000\000\000\004\000\000\000\005\000\000\000\004\000\000\000\026\000\000\000\005\000\000\000\022\000\000\000\004\000\000\000\026\000\000\000%\000\000\000\022\000\000\000!\000\000\000\026\000\000\000\005\000\000\000\004\000\000\000\022\000\000\000\005\000\000\000\033\000\000\000\004\000\000\000\026\000\000\000\000\000\000\000\001\000\000\000\005\000\000\000\000\000\000\000\001\000\000\000\000\000\000\000\001\000\000\000\000\000\000\000\001\000\000\000\000\000\000\000\001\000\000\000\013\000\000\000\016\000\000\000\017\000\000\000\016\000\000\000\020\000\000\000\002\000\000\000\014\000\000\000\017\000\000\000\021\000\000\000\003\000\000\000\002\000\000\000\003\000\000\000\002\000\000\000\020\000\000\000\003\000\000\000\021\000\000\000\r\000\000\000\030\000\000\000\036\000\000\000\n\000\000\000 \000\000\000\031\000\000\000\010\000\000\000\t\000\000\000\010\000\000\000\t\000\000\000\010\000\000\0002\000\000\000\t\000\000\000\010\000\000\0000\000\000\000\007\000\000\000\t\000\000\0008\000\000\0005\000\000\000\006\000\000\000\027\000\000\000\025\000\000\000\037\000\000\0004\000\000\000\035\000\000\000\037\000\000\000\035\000\000\0006\000\000\000&\000\000\000$\000\000\000\027\000\000\000*\000\000\000\r\000\000\000)\000\000\000\024\000\000\000\020\000\000\000\023\000\000\000\025\000\000\000\n\000\000\000\002\000\000\000#\000\000\000&\000\000\000\003\000\000\000\021\000\000\000\"\000\000\000*\000\000\000#\000\000\000&\000\000\000\"\000\000\000\037\000\000\000#\000\000\000*\000\000\000\035\000\000\000\002\000\000\000\020\000\000\000\"\000\000\000\003\000\000\000\r\000\000\000\021\000\000\000\007\000\000\000\006\000\000\000\n\000\000\000B\000\000\000I\000\000\000B\000\000\000I\000\000\000B\000\000\000I\000\000\0004\000\000\0006\000\000\000\027\000\000\000\007\000\000\000\024\000\000\000\r\000\000\000\006\000\000\000\016\000\000\000\025\000\000\000\n\000\000\000\023\000\000\000\013\000\000\000\000\000\000\000\004\000\000\000\014\000\000\000\017\000\000\000\022\000\000\000\034\000\000\000\001\000\000\000\005\000\000\000\033\000\000\000\004\000\000\000\000\000\000\000\026\000\000\000\005\000\000\000\016\000\000\000\013\000\000\000\000\000\000\000\014\000\000\000\004\000\000\000\017\000\000\000\001\000\000\000\000\000\000\000(\000\000\000\005\000\000\000D\000\000\000\001\000\000\000F\000\000\000@\000\000\000\'\000\000\000\000\000\000\000:\000\000\000\001\000\000\000\032\000\000\000:\000\000\000\000\000\000\000\032\000\000\000,\000\000\000\001\000\000\000\000\000\000\000+\000\000\000\001\000\000\000\000\000\000\000<\000\000\000\013\000\000\000\001\000\000\000;\000\000\000\000\000\000\000\014\000\000\000\001\000\000\000\000\000\000\000<\000\000\000\001\000\000\000\013\000\000\000;\000\000\000\014\000\000\000\000\000\000\000\013\000\000\000\016\000\000\000\020\000\000\000\037\000\000\000\035\000\000\000\016\000\000\000\014\000\000\000\001\000\000\000\013\000\000\000\021\000\000\000\000\000\000\000\014\000\000\000\017\000\000\000\001\000\000\000\000\000\000\000\001\000\000\000\037\000\000\000\035\000\000\000\000\000\000\000\004\000\000\000\005\000\000\000\001\000\000\000,\000\000\000+\000\000\000\000\000\000\000\001\000\000\000\000\000\000\000\013\000\000\000\016\000\000\000\020\000\000\000\001\000\000\000\014\000\000\000\017\000\000\000\001\000\000\000\000\000\000\000\013\000\000\000\001\000\000\000\016\000\000\000\037\000\000\000\020\000\000\000\035\000\000\000\014\000\000\000\017\000\000\000\021\000\000\000\020\000\000\000\021\000\000\000\020\000\000\000\002\000\000\000\021\000\000\000\020\000\000\000N\000\000\000\024\000\000\000\r\000\000\000\003\000\000\000\021\000\000\000\007\000\000\000\n\000\000\000\006\000\000\000\023\000\000\000\027\000\000\000$\000\000\000)\000\000\000\025\000\000\000$\000\000\000)\000\000\000$\000\000\000)\000\000\000$\000\000\000)\000\000\000$\000\000\000)\000\000\000$\000\000\000)\000\000\000$\000\000\000)\000\000\0008\000\000\0005\000\000\000P\000\000\000$\000\000\000\016\000\000\000\013\000\000\000\r\000\000\000\007\000\000\000\010\000\000\000\017\000\000\0003\000\000\000\014\000\000\000\006\000\000\000\n\000\000\000\t\000\000\000\010\000\000\000\t\000\000\0001\000\000\000\010\000\000\000\t\000\000\000\010\000\000\000\t\000\000\0005\000\000\0008\000\000\000\010\000\000\000U\000\000\000\t\000\000\000\010\000\000\000\t\000\000\000\010\000\000\000\027\000\000\000\007\000\000\000\t\000\000\000\025\000\000\000\006\000\000\000\024\000\000\000\023\000\000\000\027\000\000\000\025\000\000\0005\000\000\0008\000\000\000\027\000\000\000\024\000\000\000\025\000\000\000\027\000\000\000\007\000\000\000\023\000\000\000\010\000\000\000\025\000\000\000\006\000\000\000\t\000\000\000\010\000\000\000\t\000\000\000\010\000\000\000\t\000\000\0003\000\000\000\010\000\000\000\t\000\000\0001\000\000\000\010\000\000\000\t\000\000\000\010\000\000\000\016\000\000\000\r\000\000\000\024\000\000\000\030\000\000\000\036\000\000\000\023\000\000\000\017\000\000\000?\000\000\000\014\000\000\000\n\000\000\000\031\000\000\000 \000\000\000\036\000\000\000\030\000\000\000\r\000\000\000\007\000\000\000\024\000\000\000\n\000\000\000 \000\000\000\031\000\000\000\r\000\000\000\030\000\000\000\023\000\000\000\n\000\000\000\006\000\000\000\031\000\000\000\037\000\000\000\035\000\000\000\037\000\000\000\035\000\000\000\037\000\000\000\035\000\000\000\036\000\000\000\030\000\000\000\007\000\000\000\031\000\000\000 \000\000\000\030\000\000\000\036\000\000\000\006\000\000\000\031\000\000\000 \000\000\000\037\000\000\000\035\000\000\000H\000\000\000\036\000\000\000\030\000\000\000\r\000\000\000\031\000\000\000 \000\000\000\n\000\000\000\030\000\000\000\007\000\000\000\r\000\000\000\031\000\000\000\024\000\000\000\020\000\000\000\n\000\000\000\006\000\000\000\023\000\000\000\002\000\000\000/\000\000\000\021\000\000\000\003\000\000\000\002\000\000\0009\000\000\000\003\000\000\000\002\000\000\000\003\000\000\000\002\000\000\000\003\000\000\000\002\000\000\000-\000\000\0007\000\000\000\002\000\000\000\003\000\000\000\003\000\000\000\002\000\000\000\003\000\000\000\002\000\000\000\003\000\000\000\002\000\000\000\003\000\000\000\002\000\000\000\003\000\000\0005\000\000\0008\000\000\000\002\000\000\000\003\000\000\000\002\000\000\000\003\000\000\000\002\000\000\000\003\000\000\000\002\000\000\000\003\000\000\000\002\000\000\000\003\000\000\000\002\000\000\000\003\000\000\000\002\000\000\000\003\000\000\000\002\000\000\000\003\000\000\000\002\000\000\000\003\000\000\000\002\000\000\000\002\000\000\000\003\000\000\000\002\000\000\000\003\000\000\000\002\000\000\000\003\000\000\000\002\000\000\000\003\000\000\000\002\000\000\000\003\000\000\000\002\000\000\000\003\000\000\000\002\000\000\000\003\000\000\000\002\000\000\000/\000\000\000\003\000\000\000\002\000\000\000-\000\000\000\003\000\000\000\002\000\000\000\003\000\000\000\002\000\000\000\003\000\000\000\037\000\000\000\035\000\000\000\002\000\000\000\003\000\000\000\002\000\000\000\003\000\000\000\002\000\000\000\003\000\000\000\002\000\000\000\016\000\000\000\013\000\000\000\n\000\000\000\000\000\000\000<\000\000\000\006\000\000\000\014\000\000\000\001\000\000\000\017\000\000\000\013\000\000\000;\000\000\000\000\000\000\000\014\000\000\000\001\000\000\000(\000\000\000\000\000\000\000\001\000\000\000\'\000\000\000\000\000\000\000\004\000\000\0005\000\000\0008\000\000\000\000\000\000\000\005\000\000\000\001\000\000\000\000\000\000\000\013\000\000\000\001\000\000\000\014\000\000\000\013\000\000\000\014\000\000\000\000\000\000\000(\000\000\000D\000\000\000F\000\000\000\001\000\000\000@\000\000\000\000\000\000\000\'\000\000\000\001\000\000\000\000\000\000\000\004\000\000\000\001\000\000\000\000\000\000\000\005\000\000\000\001\000\000\000\004\000\000\000\000\000\000\000\001\000\000\000\022\000\000\000\026\000\000\000\022\000\000\000\000\000\000\000\026\000\000\000\005\000\000\000:\000\000\000\001\000\000\000\000\000\000\000\032\000\000\000\001\000\000\000\000\000\000\000:\000\000\000>\000\000\000\001\000\000\000\000\000\000\000:\000\000\000\001\000\000\000\000\000\000\000\032\000\000\000.\000\000\000\001\000\000\000>\000\000\000\000\000\000\000.\000\000\000,\000\000\000\001\000\000\000+\000\000\000\000\000\000\000\001\000\000\000\000\000\000\000<\000\000\000;\000\000\000(\000\000\000\001\000\000\000_\000\000\000\'\000\000\000\000\000\000\000\013\000\000\000\020\000\000\000\016\000\000\000\001\000\000\000\017\000\000\000\014\000\000\000\016\000\000\000\013\000\000\000\021\000\000\000\000\000\000\000\017\000\000\000\014\000\000\000\000\000\000\000\001\000\000\000\001\000\000\0008\000\000\000C\000\000\000\000\000\000\000,\000\000\000\001\000\000\000\000\000\000\000\001\000\000\000+\000\000\000\000\000\000\000\004\000\000\000\001\000\000\000\022\000\000\000\000\000\000\000\026\000\000\000\013\000\000\000\016\000\000\000\020\000\000\000\001\000\000\000\014\000\000\000\005\000\000\000\017\000\000\000\002\000\000\000\003\000\000\000\002\000\000\000\021\000\000\000\020\000\000\000\020\000\000\000\006\000\000\000\n\000\000\000\002\000\000\000\t\000\000\000\003\000\000\0009\000\000\000\002\000\000\000\021\000\000\000\003\000\000\000\002\000\000\0007\000\000\000/\000\000\000\003\000\000\000\002\000\000\000\002\000\000\000-\000\000\000\003\000\000\000\002\000\000\000\003\000\000\000\002\000\000\000\003\000\000\000\002\000\000\000/\000\000\000\003\000\000\000\002\000\000\000\003\000\000\000\002\000\000\000-\000\000\000\003\000\000\000\002\000\000\000\003\000\000\000\002\000\000\000\020\000\000\000\020\000\000\000\016\000\000\000\013\000\000\000\000\000\000\000\004\000\000\000\021\000\000\000\014\000\000\000\022\000\000\000\017\000\000\000\034\000\000\000\001\000\000\000\005\000\000\000\004\000\000\000\005\000\000\000\004\000\000\000%\000\000\000\026\000\000\000!\000\000\000\000\000\000\000\005\000\000\000\013\000\000\000\014\000\000\000\001\000\000\000\000\000\000\000\004\000\000\000\001\000\000\000%\000\000\000!\000\000\000\022\000\000\000\026\000\000\000\022\000\000\000\005\000\000\000\026\000\000\000\022\000\000\000\004\000\000\000\000\000\000\000\013\000\000\000\016\000\000\000\005\000\000\000\026\000\000\000\r\000\000\000\001\000\000\000\024\000\000\000\007\000\000\000\027\000\000\000\014\000\000\000\017\000\000\000\006\000\000\000\025\000\000\000\023\000\000\000\027\000\000\000\n\000\000\000$\000\000\000\025\000\000\000)\000\000\0004\000\000\0006\000\000\000$\000\000\000&\000\000\000)\000\000\000*\000\000\000&\000\000\000*\000\000\0004\000\000\0006\000\000\0004\000\000\0004\000\000\0006\000\000\0002\000\000\000\010\000\000\0000\000\000\000\030\000\000\000\t\000\000\000\036\000\000\000 \000\000\000\007\000\000\000\027\000\000\000\031\000\000\0002\000\000\000\006\000\000\000\025\000\000\000\027\000\000\000\007\000\000\000\r\000\000\000\024\000\000\0000\000\000\000\025\000\000\000\023\000\000\000\016\000\000\000\006\000\000\000\013\000\000\000\n\000\000\000\000\000\000\000\004\000\000\000\022\000\000\000\014\000\000\000\017\000\000\000\001\000\000\000\005\000\000\000\033\000\000\000\004\000\000\000\000\000\000\000\013\000\000\000\005\000\000\000\016\000\000\000\001\000\000\000\026\000\000\000\r\000\000\000\014\000\000\000\024\000\000\000\017\000\000\000\007\000\000\000\r\000\000\000\024\000\000\000\016\000\000\000\006\000\000\000\013\000\000\000\n\000\000\000\023\000\000\000\000\000\000\000\004\000\000\000\022\000\000\000\014\000\000\000\017\000\000\000\034\000\000\000\001\000\000\000\005\000\000\000\033\000\000\000\004\000\000\000>\000\000\000:\000\000\000\026\000\000\000\005\000\000\000.\000\000\000]\000\000\000\000\000\000\000\004\000\000\000\032\000\000\000\022\000\000\000\005\000\000\000\001\000\000\000\032\000\000\000\004\000\000\000\000\000\000\000\026\000\000\000\013\000\000\000\016\000\000\000\r\000\000\000\024\000\000\000\001\000\000\000\005\000\000\000\007\000\000\000\027\000\000\000\023\000\000\000\017\000\000\000\014\000\000\000\n\000\000\000\006\000\000\000\024\000\000\000\007\000\000\000\r\000\000\000\025\000\000\000\027\000\000\000\016\000\000\000\013\000\000\000\006\000\000\000\n\000\000\000\023\000\000\000\014\000\000\000\000\000\000\000\025\000\000\000\017\000\000\000\001\000\000\000\000\000\000\000\004\000\000\000\022\000\000\000\034\000\000\000\001\000\000\000\005\000\000\000\033\000\000\000\004\000\000\000\000\000\000\000\024\000\000\000\027\000\000\000\023\000\000\000\007\000\000\000\r\000\000\000\030\000\000\000\025\000\000\000\036\000\000\000W\000\000\000\037\000\000\000\006\000\000\000\n\000\000\000\031\000\000\000 \000\000\000%\000\000\000V\000\000\000\035\000\000\000\037\000\000\000W\000\000\000?\000\000\000!\000\000\000\035\000\000\000V\000\000\0008\000\000\000C\000\000\000\036\000\000\000\030\000\000\000\007\000\000\000\r\000\000\000 \000\000\000\027\000\000\000\031\000\000\000\n\000\000\000\006\000\000\000\027\000\000\000\025\000\000\000\025\000\000\000\027\000\000\000\007\000\000\000\r\000\000\000\030\000\000\000\036\000\000\000\025\000\000\000\031\000\000\000\n\000\000\000\006\000\000\000H\000\000\000\030\000\000\000\r\000\000\000\007\000\000\000 \000\000\000\024\000\000\000\031\000\000\000\n\000\000\000\006\000\000\000\023\000\000\000\024\000\000\000\037\000\000\000%\000\000\000\004\000\000\000\000\000\000\000\035\000\000\000X\000\000\000!\000\000\000(\000\000\000\005\000\000\000\001\000\000\000\000\000\000\000\001\000\000\000L\000\000\000A\000\000\000\000\000\000\000\001\000\000\000\000\000\000\000\001\000\000\000\000\000\000\000\001\000\000\000\000\000\000\000\001\000\000\000E\000\000\000\000\000\000\000M\000\000\000\001\000\000\000\000\000\000\000\'\000\000\000\001\000\000\000\r\000\000\000\007\000\000\000\010\000\000\0003\000\000\000\023\000\000\000\006\000\000\000\n\000\000\000\t\000\000\000\010\000\000\0001\000\000\000\t\000\000\000\010\000\000\000\t\000\000\000\010\000\000\000\010\000\000\000\t\000\000\0008\000\000\0005\000\000\000\010\000\000\000\t\000\000\000\010\000\000\000\t\000\000\000\010\000\000\000\007\000\000\000\027\000\000\000\t\000\000\000\025\000\000\000\006\000\000\000\027\000\000\000\025\000\000\0008\000\000\0005\000\000\000\027\000\000\000\007\000\000\000\010\000\000\000\025\000\000\000\006\000\000\000Y\000\000\000\t\000\000\000\010\000\000\000\t\000\000\000\010\000\000\000\t\000\000\000\010\000\000\0003\000\000\0001\000\000\0003\000\000\000\t\000\000\000\010\000\000\0001\000\000\000\007\000\000\000\025\000\000\000$\000\000\000)\000\000\000N\000\000\000$\000\000\0005\000\000\0008\000\000\000P\000\000\000)\000\000\000\r\000\000\000\016\000\000\000\013\000\000\000\n\000\000\000\000\000\000\000(\000\000\000\014\000\000\000\017\000\000\000F\000\000\000\006\000\000\000@\000\000\000D\000\000\000\001\000\000\000\000\000\000\000\001\000\000\000\000\000\000\000\001\000\000\000\000\000\000\000\'\000\000\000:\000\000\000\001\000\000\000:\000\000\000\000\000\000\000\032\000\000\000,\000\000\000\032\000\000\000+\000\000\000\001\000\000\000\000\000\000\000:\000\000\000\001\000\000\000\032\000\000\000\000\000\000\000<\000\000\000\001\000\000\000\000\000\000\000;\000\000\000\001\000\000\000\000\000\000\000\001\000\000\000\000\000\000\000<\000\000\000;\000\000\000\001\000\000\000\000\000\000\000\001\000\000\000\016\000\000\000\013\000\000\000\020\000\000\000\017\000\000\000\014\000\000\000\016\000\000\000\013\000\000\000\021\000\000\000\000\000\000\000\014\000\000\000\017\000\000\000\001\000\000\000\000\000\000\000\001\000\000\000\000\000\000\000\001\000\000\000\000\000\000\000\001\000\000\000\000\000\000\000\000\000\000\000\001\000\000\000\013\000\000\000\014\000\000\000\000\000\000\000\001\000\000\000\000\000\000\000,\000\000\000\001\000\000\000+\000\000\000\000\000\000\000C\000\000\0008\000\000\000\001\000\000\000\000\000\000\000\001\000\000\000\000\000\000\000\001\000\000\000\000\000\000\000\013\000\000\000\016\000\000\000\020\000\000\000\001\000\000\000\002\000\000\000\014\000\000\000\017\000\000\000\021\000\000\000\020\000\000\000\r\000\000\000\024\000\000\000\003\000\000\000\007\000\000\000\023\000\000\000\021\000\000\000\006\000\000\000\016\000\000\000\013\000\000\000\023\000\000\000\006\000\000\000\000\000\000\000\n\000\000\000\031\000\000\000\014\000\000\000\022\000\000\000\004\000\000\000\034\000\000\000\017\000\000\000\005\000\000\000\001\000\000\000\033\000\000\000\004\000\000\000\000\000\000\000\026\000\000\000\005\000\000\000\001\000\000\000T\000\000\000=\000\000\000\000\000\000\000\004\000\000\000\022\000\000\000\032\000\000\000\005\000\000\000\001\000\000\000\026\000\000\000\022\000\000\000\004\000\000\000\000\000\000\000\026\000\000\000\005\000\000\000\016\000\000\000\013\000\000\000\r\000\000\000\001\000\000\000\007\000\000\000\027\000\000\000\014\000\000\000\017\000\000\000\n\000\000\000\006\000\000\000\007\000\000\000\r\000\000\000\024\000\000\000\016\000\000\000\013\000\000\000\006\000\000\000\023\000\000\000\n\000\000\000\000\000\000\000\025\000\000\000\014\000\000\000\017\000\000\000\001\000\000\000\000\000\000\000\004\000\000\000\022\000\000\000\034\000\000\000\001\000\000\000\005\000\000\000\033\000\000\000\004\000\000\000\000\000\000\000\005\000\000\000\013\000\000\000\026\000\000\000\016\000\000\000%\000\000\000\000\000\000\000(\000\000\000!\000\000\000\035\000\000\000D\000\000\000\001\000\000\000@\000\000\000\'\000\000\000\000\000\000\000\004\000\000\000\001\000\000\000\005\000\000\000\000\000\000\000\004\000\000\000\000\000\000\000\001\000\000\000\001\000\000\000\005\000\000\000:\000\000\000>\000\000\000\032\000\000\000\032\000\000\000.\000\000\000\000\000\000\000,\000\000\000\001\000\000\000+\000\000\000\000\000\000\000\001\000\000\000\000\000\000\000\001\000\000\000\000\000\000\000\001\000\000\000\000\000\000\000(\000\000\000\'\000\000\000\001\000\000\000\000\000\000\000\001\000\000\000\000\000\000\000\001\000\000\000\000\000\000\000\001\000\000\000\000\000\000\000\001\000\000\000,\000\000\000+\000\000\0005\000\000\0008\000\000\000\000\000\000\000\001\000\000\000\000\000\000\000\001\000\000\000\000\000\000\000(\000\000\000F\000\000\000\001\000\000\000\'\000\000\000\000\000\000\000<\000\000\000\001\000\000\000\000\000\000\000\013\000\000\000;\000\000\000\014\000\000\000\001\000\000\000\000\000\000\000\001\000\000\000\000\000\000\000<\000\000\000\001\000\000\000;\000\000\000\000\000\000\000\001\000\000\000\000\000\000\000(\000\000\000\001\000\000\000_\000\000\000\'\000\000\000\013\000\000\000\016\000\000\000\016\000\000\000\013\000\000\000\006\000\000\000\n\000\000\000\000\000\000\000\004\000\000\000\014\000\000\000\022\000\000\000\017\000\000\000\034\000\000\000\001\000\000\000\005\000\000\000\033\000\000\000\004\000\000\000\000\000\000\000\026\000\000\000\001\000\000\000%\000\000\000\005\000\000\000\004\000\000\000\005\000\000\000\004\000\000\000!\000\000\000%\000\000\000\022\000\000\000\005\000\000\000\004\000\000\000!\000\000\000\005\000\000\000\004\000\000\000\026\000\000\000\005\000\000\000\004\000\000\000\000\000\000\000\005\000\000\000\001\000\000\000\000\000\000\000\004\000\000\000\000\000\000\000\001\000\000\000\005\000\000\000\004\000\000\000\000\000\000\000\001\000\000\000\022\000\000\000\026\000\000\000\022\000\000\000%\000\000\000\026\000\000\000\005\000\000\000%\000\000\000\004\000\000\000\022\000\000\000!\000\000\000\034\000\000\000%\000\000\000\005\000\000\000!\000\000\000\033\000\000\000\004\000\000\000\000\000\000\000\001\000\000\000\000\000\000\000\005\000\000\000\026\000\000\000\001\000\000\000\000\000\000\000\001\000\000\000\000\000\000\000\004\000\000\000\022\000\000\000\001\000\000\000\000\000\000\000\026\000\000\0008\000\000\0005\000\000\000\020\000\000\000\017\000\000\000\001\000\000\000\005\000\000\000\002\000\000\000\021\000\000\000\003\000\000\000&\000\000\000&\000\000\000#\000\000\000\"\000\000\000#\000\000\000\"\000\000\000#\000\000\000\002\000\000\000\020\000\000\000\003\000\000\000\r\000\000\000*\000\000\000\"\000\000\000\007\000\000\000\021\000\000\000\027\000\000\000\006\000\000\000\n\000\000\000\025\000\000\000\010\000\000\0002\000\000\0000\000\000\000\030\000\000\000\t\000\000\000\031\000\000\000\030\000\000\000\010\000\000\000\031\000\000\000\030\000\000\000\t\000\000\000\031\000\000\000\030\000\000\000\036\000\000\000W\000\000\000\037\000\000\000%\000\000\000\031\000\000\000 \000\000\000V\000\000\000\004\000\000\000\022\000\000\000\035\000\000\000\034\000\000\000!\000\000\000\005\000\000\000\033\000\000\000\004\000\000\000\000\000\000\000$\000\000\000$\000\000\000N\000\000\000)\000\000\000\027\000\000\000$\000\000\000P\000\000\000\025\000\000\000\027\000\000\000\025\000\000\000)\000\000\000\030\000\000\000\036\000\000\000W\000\000\000\031\000\000\000\t\000\000\000\037\000\000\000 \000\000\000%\000\000\000\004\000\000\000V\000\000\000\022\000\000\000\034\000\000\000\035\000\000\000!\000\000\000\005\000\000\000\033\000\000\000\004\000\000\000\000\000\000\000\005\000\000\000\026\000\000\000\001\000\000\000>\000\000\000T\000\000\000\000\000\000\000\004\000\000\000\022\000\000\000.\000\000\000\032\000\000\000\032\000\000\000\001\000\000\000\005\000\000\000\004\000\000\000\000\000\000\000\013\000\000\000\016\000\000\000\026\000\000\000\005\000\000\000\r\000\000\000\001\000\000\000\007\000\000\000\027\000\000\000\014\000\000\000\017\000\000\000\n\000\000\000\006\000\000\000\007\000\000\000\r\000\000\000\016\000\000\000\n\000\000\000\006\000\000\000\013\000\000\000\000\000\000\000\025\000\000\000\017\000\000\000\014\000\000\000\004\000\000\000\022\000\000\000\034\000\000\000\001\000\000\000\005\000\000\000\033\000\000\000\004\000\000\000\r\000\000\000\007\000\000\000\010\000\000\000\n\000\000\0003\000\000\000\006\000\000\000\t\000\000\0001\000\000\000U\000\000\0008\000\000\000S\000\000\000\010\000\000\000\t\000\000\000\010\000\000\000\t\000\000\000\010\000\000\000\t\000\000\000\010\000\000\000\007\000\000\000\027\000\000\000\024\000\000\000\t\000\000\000\025\000\000\000\006\000\000\000\023\000\000\000\024\000\000\000\027\000\000\000\007\000\000\000\010\000\000\000\023\000\000\000\025\000\000\000\027\000\000\000\t\000\000\000\024\000\000\000\025\000\000\000\023\000\000\000\006\000\000\0008\000\000\000S\000\000\000\024\000\000\000\027\000\000\000\007\000\000\000\023\000\000\000\010\000\000\000\025\000\000\000Y\000\000\000\006\000\000\000\t\000\000\000\010\000\000\000\t\000\000\000\010\000\000\000\t\000\000\0003\000\000\000\010\000\000\000\t\000\000\0001\000\000\000\010\000\000\000\007\000\000\000\r\000\000\000\020\000\000\000\006\000\000\000\n\000\000\000\002\000\000\000\t\000\000\000\021\000\000\0009\000\000\000\003\000\000\000\002\000\000\0007\000\000\000/\000\000\000\003\000\000\000\002\000\000\000-\000\000\000\002\000\000\000\003\000\000\000\002\000\000\000\003\000\000\000\002\000\000\000\003\000\000\000\002\000\000\000\003\000\000\000\002\000\000\000\003\000\000\000\002\000\000\000\003\000\000\000\002\000\000\000\003\000\000\000\002\000\000\000\002\000\000\000\003\000\000\000\002\000\000\000\003\000\000\000\002\000\000\000\002\000\000\000\003\000\000\000\002\000\000\000\003\000\000\000\002\000\000\000\003\000\000\000\002\000\000\000\003\000\000\000\002\000\000\000\003\000\000\000\002\000\000\000\003\000\000\000\002\000\000\000\020\000\000\000\016\000\000\000\013\000\000\000\000\000\000\000\021\000\000\000\014\000\000\000\004\000\000\000\017\000\000\000\003\000\000\000\016\000\000\000\013\000\000\000\005\000\000\000\020\000\000\000\001\000\000\000\014\000\000\000\002\000\000\000\003\000\000\000\021\000\000\000\017\000\000\000\002\000\000\000\020\000\000\0008\000\000\0005\000\000\000\r\000\000\000\003\000\000\000\021\000\000\000\007\000\000\000\006\000\000\000\n\000\000\000\007\000\000\000\r\000\000\000\020\000\000\000\006\000\000\000\n\000\000\000\002\000\000\000\021\000\000\000\020\000\000\000\003\000\000\000\037\000\000\000%\000\000\000\035\000\000\000\000\000\000\000\004\000\000\000(\000\000\000!\000\000\000\005\000\000\000X\000\000\000\000\000\000\000\001\000\000\000\000\000\000\000\001\000\000\000L\000\000\000A\000\000\000E\000\000\000M\000\000\000\'\000\000\000\000\000\000\000\030\000\000\000\036\000\000\000\007\000\000\000?\000\000\000\006\000\000\000\017\000\000\000\031\000\000\000\n\000\000\000 \000\000\000\014\000\000\000W\000\000\000V\000\000\000\030\000\000\000\036\000\000\000H\000\000\000\007\000\000\000\r\000\000\000 \000\000\000\n\000\000\000\031\000\000\000\024\000\000\000\r\000\000\000\n\000\000\000\017\000\000\000\030\000\000\000\036\000\000\000\007\000\000\000\006\000\000\000\031\000\000\000\n\000\000\000 \000\000\000\036\000\000\000?\000\000\000\030\000\000\000\007\000\000\000 \000\000\000\r\000\000\000\027\000\000\000\031\000\000\000\006\000\000\000\n\000\000\000\025\000\000\000\027\000\000\000\025\000\000\000\007\000\000\000\027\000\000\000\r\000\000\000\030\000\000\000\036\000\000\000\025\000\000\000\n\000\000\000 \000\000\000\006\000\000\000\031\000\000\000\036\000\000\000H\000\000\000\030\000\000\000\007\000\000\000\r\000\000\000\n\000\000\000 